{
  "version": "1.0",
  "truncation": null,
  "padding": null,
  "added_tokens": [
    {
      "id": 0,
      "content": "<|endoftext|>",
      "single_word": false,
      "lstrip": false,
      "rstrip": false,
      "normalized": false,
      "special": true
    },
    {
      "id": 1,
      "content": "<|im_start|>",
      "single_word": false,
      "lstrip": false,
      "rstrip": false,
      "normalized": false,
      "special": true
    },
    {
      "id": 2,
      "content": "<|im_end|>",
      "single_word": false,
      "lstrip": false,
      "rstrip": false,
      "normalized": false,
      "special": true
    },
    {
      "id": 3,
      "content": "<|object_ref_start|>",
      "single_word": false,
      "lstrip": false,
      "rstrip": false,
      "normalized": false,
      "special": true
    },
    {
      "id": 4,
      "content": "<|object_ref_end|>",
      "single_word": false,
      "lstrip": false,
      "rstrip": false,
      "normalized": false,
      "special": true
    },
    {
      "id": 5,
      "content": "<|box_start|>",
      "single_word": false,
      "lstrip": false,
      "rstrip": false,
      "normalized": false,
      "special": true
    },
    {
      "id": 6,
      "content": "<|box_end|>",
      "single_word": false,
      "lstrip": false,
      "rstrip": false,
      "normalized": false,
      "special": true
    },
    {
      "id": 7,
      "content": "<|quad_start|>",
      "single_word": false,
      "lstrip": false,
      "rstrip": false,
      "normalized": false,
      "special": true
    },
    {
      "id": 8,
      "content": "<|quad_end|>",
      "single_word": false,
      "lstrip": false,
      "rstrip": false,
      "normalized": false,
      "special": true
    },
    {
      "id": 9,
      "content": "<|vision_start|>",
      "single_word": false,
      "lstrip": false,
      "rstrip": false,
      "normalized": false,
      "special": true
    },
    {
      "id": 10,
      "content": "<|vision_end|>",
      "single_word": false,
      "lstrip": false,
      "rstrip": false,
      "normalized": false,
      "special": true
    },
    {
      "id": 11,
      "content": "<|vision_pad|>",
      "single_word": false,
      "lstrip": false,
      "rstrip": false,
      "normalized": false,
      "special": true
    },
    {
      "id": 12,
      "content": "<|image_pad|>",
      "single_word": false,
      "lstrip": false,
      "rstrip": false,
      "normalized": false,
      "special": true
    },
    {
      "id": 13,
      "content": "<|video_pad|>",
      "single_word": false,
      "lstrip": false,
      "rstrip": false,
      "normalized": false,
      "special": true
    },
    {
      "id": 14,
      "content": "<|audio_start|>",
      "single_word": false,
      "lstrip": false,
      "rstrip": false,
      "normalized": false,
      "special": true
    },
    {
      "id": 15,
      "content": "<|audio_end|>",
      "single_word": false,
      "lstrip": false,
      "rstrip": false,
      "normalized": false,
      "special": true
    },
    {
      "id": 16,
      "content": "<|audio_pad|>",
      "single_word": false,
      "lstrip": false,
      "rstrip": false,
      "normalized": false,
      "special": true
    },
    {
      "id": 17,
      "content": "<tts_pad>",
      "single_word": false,
      "lstrip": false,
      "rstrip": false,
      "normalized": false,
      "special": true
    },
    {
      "id": 18,
      "content": "<tts_text_bos>",
      "single_word": false,
      "lstrip": false,
      "rstrip": false,
      "normalized": false,
      "special": true
    },
    {
      "id": 19,
      "content": "<tts_text_eod>",
      "single_word": false,
      "lstrip": false,
      "rstrip": false,
      "normalized": false,
      "special": true
    },
    {
      "id": 20,
      "content": "<tts_text_bos_single>",
      "single_word": false,
      "lstrip": false,
      "rstrip": false,
      "normalized": false,
      "special": true
    },
    {
      "id": 21,
      "content": "<tool_call>",
      "single_word": false,
      "lstrip": false,
      "rstrip": false,
      "normalized": false,
      "special": true
    },
    {
      "id": 22,
      "content": "</tool_call>",
      "single_word": false,
      "lstrip": false,
      "rstrip": false,
      "normalized": false,
      "special": true
    },
    {
      "id": 23,
      "content": "<tool_response>",
      "single_word": false,
      "lstrip": false,
      "rstrip": false,
      "normalized": false,
      "special": true
    },
    {
      "id": 24,
      "content": "</tool_response>",
      "single_word": false,
      "lstrip": false,
      "rstrip": false,
      "normalized": false,
      "special": true
    },
    {
      "id": 25,
      "content": "<cot>",
      "single_word": false,
      "lstrip": false,
      "rstrip": false,
      "normalized": false,
      "special": true
    },
    {
      "id": 26,
      "content": "</cot>",
      "single_word": false,
      "lstrip": false,
      "rstrip": false,
      "normalized": false,
      "special": true
    },
    {
      "id": 27,
      "content": "<buffer1>",
      "single_word": false,
      "lstrip": false,
      "rstrip": false,
      "normalized": false,
      "special": true
    },
    {
      "id": 28,
      "content": "<buffer2>",
      "single_word": false,
      "lstrip": false,
      "rstrip": false,
      "normalized": false,
      "special": true
    },
    {
      "id": 29,
      "content": "<buffer3>",
      "single_word": false,
      "lstrip": false,
      "rstrip": false,
      "normalized": false,
      "special": true
    },
    {
      "id": 30,
      "content": "<buffer4>",
      "single_word": false,
      "lstrip": false,
      "rstrip": false,
      "normalized": false,
      "special": true
    },
    {
      "id": 31,
      "content": "<buffer5>",
      "single_word": false,
      "lstrip": false,
      "rstrip": false,
      "normalized": false,
      "special": true
    },
    {
      "id": 32,
      "content": "<buffer6>",
      "single_word": false,
      "lstrip": false,
      "rstrip": false,
      "normalized": false,
      "special": true
    },
    {
      "id": 33,
      "content": "<buffer7>",
      "single_word": false,
      "lstrip": false,
      "rstrip": false,
      "normalized": false,
      "special": true
    },
    {
      "id": 34,
      "content": "<buffer8>",
      "single_word": false,
      "lstrip": false,
      "rstrip": false,
      "normalized": false,
      "special": true
    },
    {
      "id": 35,
      "content": "<buffer9>",
      "single_word": false,
      "lstrip": false,
      "rstrip": false,
      "normalized": false,
      "special": true
    },
    {
      "id": 36,
      "content": "<buffer10>",
      "single_word": false,
      "lstrip": false,
      "rstrip": false,
      "normalized": false,
      "special": true
    },
    {
      "id": 37,
      "content": "<buffer11>",
      "single_word": false,
      "lstrip": false,
      "rstrip": false,
      "normalized": false,
      "special": true
    },
    {
      "id": 38,
      "content": "<buffer12>",
      "single_word": false,
      "lstrip": false,
      "rstrip": false,
      "normalized": false,
      "special": true
    },
    {
      "id": 39,
      "content": "<buffer13>",
      "single_word": false,
      "lstrip": false,
      "rstrip": false,
      "normalized": false,
      "special": true
    }
  ],
  "normalizer": null,
  "pre_tokenizer": {
    "type": "ByteLevel",
    "add_prefix_space": false,
    "trim_offsets": true,
    "use_regex": true
  },
  "post_processor": null,
  "decoder": {
    "type": "ByteLevel",
    "add_prefix_space": true,
    "trim_offsets": true,
    "use_regex": true
  },
  "model": {
    "type": "BPE",
    "dropout": null,
    "unk_token": null,
    "continuing_subword_prefix": null,
    "end_of_word_suffix": null,
    "fuse_unk": false,
    "byte_fallback": false,
    "ignore_merges": false,
    "vocab": {
      "<|endoftext|>": 0,
      "<|im_start|>": 1,
      "<|im_end|>": 2,
      "<|object_ref_start|>": 3,
      "<|object_ref_end|>": 4,
      "<|box_start|>": 5,
      "<|box_end|>": 6,
      "<|quad_start|>": 7,
      "<|quad_end|>": 8,
      "<|vision_start|>": 9,
      "<|vision_end|>": 10,
      "<|vision_pad|>": 11,
      "<|image_pad|>": 12,
      "<|video_pad|>": 13,
      "<|audio_start|>": 14,
      "<|audio_end|>": 15,
      "<|audio_pad|>": 16,
      "<tts_pad>": 17,
      "<tts_text_bos>": 18,
      "<tts_text_eod>": 19,
      "<tts_text_bos_single>": 20,
      "<tool_call>": 21,
      "</tool_call>": 22,
      "<tool_response>": 23,
      "</tool_response>": 24,
      "<cot>": 25,
      "</cot>": 26,
      "<buffer1>": 27,
      "<buffer2>": 28,
      "<buffer3>": 29,
      "<buffer4>": 30,
      "<buffer5>": 31,
      "<buffer6>": 32,
      "<buffer7>": 33,
      "<buffer8>": 34,
      "<buffer9>": 35,
      "<buffer10>": 36,
      "<buffer11>": 37,
      "<buffer12>": 38,
      "<buffer13>": 39,
      "!": 40,
      "\"": 41,
      "#": 42,
      "$": 43,
      "%": 44,
      "&": 45,
      "'": 46,
      "(": 47,
      ")": 48,
      "*": 49,
      "+": 50,
      ",": 51,
      "-": 52,
      ".": 53,
      "/": 54,
      "0": 55,
      "1": 56,
      "2": 57,
      "3": 58,
      "4": 59,
      "5": 60,
      "6": 61,
      "7": 62,
      "8": 63,
      "9": 64,
      ":": 65,
      ";": 66,
      "<": 67,
      "=": 68,
      ">": 69,
      "?": 70,
      "@": 71,
      "A": 72,
      "B": 73,
      "C": 74,
      "D": 75,
      "E": 76,
      "F": 77,
      "G": 78,
      "H": 79,
      "I": 80,
      "J": 81,
      "K": 82,
      "L": 83,
      "M": 84,
      "N": 85,
      "O": 86,
      "P": 87,
      "Q": 88,
      "R": 89,
      "S": 90,
      "T": 91,
      "U": 92,
      "V": 93,
      "W": 94,
      "X": 95,
      "Y": 96,
      "Z": 97,
      "[": 98,
      "\\": 99,
      "]": 100,
      "^": 101,
      "_": 102,
      "`": 103,
      "a": 104,
      "b": 105,
      "c": 106,
      "d": 107,
      "e": 108,
      "f": 109,
      "g": 110,
      "h": 111,
      "i": 112,
      "j": 113,
      "k": 114,
      "l": 115,
      "m": 116,
      "n": 117,
      "o": 118,
      "p": 119,
      "q": 120,
      "r": 121,
      "s": 122,
      "t": 123,
      "u": 124,
      "v": 125,
      "w": 126,
      "x": 127,
      "y": 128,
      "z": 129,
      "{": 130,
      "|": 131,
      "}": 132,
      "~": 133,
      "¡": 134,
      "¢": 135,
      "£": 136,
      "¤": 137,
      "¥": 138,
      "¦": 139,
      "§": 140,
      "¨": 141,
      "©": 142,
      "ª": 143,
      "«": 144,
      "¬": 145,
      "®": 146,
      "¯": 147,
      "°": 148,
      "±": 149,
      "²": 150,
      "³": 151,
      "´": 152,
      "µ": 153,
      "¶": 154,
      "·": 155,
      "¸": 156,
      "¹": 157,
      "º": 158,
      "»": 159,
      "¼": 160,
      "½": 161,
      "¾": 162,
      "¿": 163,
      "À": 164,
      "Á": 165,
      "Â": 166,
      "Ã": 167,
      "Ä": 168,
      "Å": 169,
      "Æ": 170,
      "Ç": 171,
      "È": 172,
      "É": 173,
      "Ê": 174,
      "Ë": 175,
      "Ì": 176,
      "Í": 177,
      "Î": 178,
      "Ï": 179,
      "Ð": 180,
      "Ñ": 181,
      "Ò": 182,
      "Ó": 183,
      "Ô": 184,
      "Õ": 185,
      "Ö": 186,
      "×": 187,
      "Ø": 188,
      "Ù": 189,
      "Ú": 190,
      "Û": 191,
      "Ü": 192,
      "Ý": 193,
      "Þ": 194,
      "ß": 195,
      "à": 196,
      "á": 197,
      "â": 198,
      "ã": 199,
      "ä": 200,
      "å": 201,
      "æ": 202,
      "ç": 203,
      "è": 204,
      "é": 205,
      "ê": 206,
      "ë": 207,
      "ì": 208,
      "í": 209,
      "î": 210,
      "ï": 211,
      "ð": 212,
      "ñ": 213,
      "ò": 214,
      "ó": 215,
      "ô": 216,
      "õ": 217,
      "ö": 218,
      "÷": 219,
      "ø": 220,
      "ù": 221,
      "ú": 222,
      "û": 223,
      "ü": 224,
      "ý": 225,
      "þ": 226,
      "ÿ": 227,
      "Ā": 228,
      "ā": 229,
      "Ă": 230,
      "ă": 231,
      "Ą": 232,
      "ą": 233,
      "Ć": 234,
      "ć": 235,
      "Ĉ": 236,
      "ĉ": 237,
      "Ċ": 238,
      "ċ": 239,
      "Č": 240,
      "č": 241,
      "Ď": 242,
      "ď": 243,
      "Đ": 244,
      "đ": 245,
      "Ē": 246,
      "ē": 247,
      "Ĕ": 248,
      "ĕ": 249,
      "Ė": 250,
      "ė": 251,
      "Ę": 252,
      "ę": 253,
      "Ě": 254,
      "ě": 255,
      "Ĝ": 256,
      "ĝ": 257,
      "Ğ": 258,
      "ğ": 259,
      "Ġ": 260,
      "ġ": 261,
      "Ģ": 262,
      "ģ": 263,
      "Ĥ": 264,
      "ĥ": 265,
      "Ħ": 266,
      "ħ": 267,
      "Ĩ": 268,
      "ĩ": 269,
      "Ī": 270,
      "ī": 271,
      "Ĭ": 272,
      "ĭ": 273,
      "Į": 274,
      "į": 275,
      "İ": 276,
      "ı": 277,
      "Ĳ": 278,
      "ĳ": 279,
      "Ĵ": 280,
      "ĵ": 281,
      "Ķ": 282,
      "ķ": 283,
      "ĸ": 284,
      "Ĺ": 285,
      "ĺ": 286,
      "Ļ": 287,
      "ļ": 288,
      "Ľ": 289,
      "ľ": 290,
      "Ŀ": 291,
      "ŀ": 292,
      "Ł": 293,
      "ł": 294,
      "Ń": 295,
      "ï¼": 296,
      "ä¸": 297,
      "çļ": 298,
      "çļĦ": 299,
      "ï¼Į": 300,
      "ãĢ": 301,
      "ãĢĤ": 302,
      "äº": 303,
      "ä»": 304,
      "åı": 305,
      "æľ": 306,
      "ä½": 307,
      "è¿": 308,
      "åħ": 309,
      "**": 310,
      "æĪ": 311,
      "åĪ": 312,
      "çĶ": 313,
      "å®": 314,
      "åĬ": 315,
      "åľ": 316,
      "åĴ": 317,
      "å¤": 318,
      "åĴĮ": 319,
      "åĲ": 320,
      "ãĢģ": 321,
      "æĸ": 322,
      "è¯": 323,
      "æĺ": 324,
      "ï¼ļ": 325,
      "ç»": 326,
      "ĥ½": 327,
      "æķ": 328,
      "è®": 329,
      "éĢ": 330,
      "èĥ½": 331,
      "åľ¨": 332,
      "åŃ": 333,
      "åı¯": 334,
      "ä¸Ģ": 335,
      "ä¹": 336,
      "åº": 337,
      "ä»¥": 338,
      "æĺ¯": 339,
      "æĹ": 340,
      "åĮ": 341,
      "ä¼": 342,
      "è§": 343,
      "çĶ¨": 344,
      "Ġ**": 345,
      "æĢ": 346,
      "å¯": 347,
      "**ï¼ļ": 348,
      "ä¸ª": 349,
      "å°": 350,
      "è¡": 351,
      "éĩ": 352,
      "æľī": 353,
      "ĠĠ": 354,
      "ä¿": 355,
      "å¸": 356,
      "æĿ": 357,
      "å¼": 358,
      "¦Ĥ": 359,
      "åĽ": 360,
      "çİ": 361,
      "åĩ": 362,
      "åĨ": 363,
      "äºº": 364,
      "Ġt": 365,
      "éĹ": 366,
      "å¦Ĥ": 367,
      "ä¸Ń": 368,
      "çĲ": 369,
      "çŃ": 370,
      "è¿Ļ": 371,
      "æŀ": 372,
      "æĬ": 373,
      "æķ°": 374,
      "çī": 375,
      "å¹": 376,
      "å·": 377,
      "in": 378,
      "èĢ": 379,
      "é¢": 380,
      "ç§": 381,
      "æ³": 382,
      "è¦": 383,
      "æı": 384,
      "æĹ¶": 385,
      "è¦ģ": 386,
      "ä¸º": 387,
      "ä¸į": 388,
      "çĽ": 389,
      "çĲĨ": 390,
      "æł": 391,
      "äºĨ": 392,
      "æĪĳ": 393,
      "Ġa": 394,
      "he": 395,
      "å½": 396,
      "æī": 397,
      "å¾": 398,
      "ä¾": 399,
      "å¯¹": 400,
      "è¿ĩ": 401,
      "æĦ": 402,
      "æİ": 403,
      "æĢ§": 404,
      "æĪĸ": 405,
      "åı¯ä»¥": 406,
      "äºİ": 407,
      "æıĲ": 408,
      "çĶŁ": 409,
      "éĢļ": 410,
      "åį": 411,
      "èĩ": 412,
      "ä¸İ": 413,
      "æį": 414,
      "re": 415,
      "æĮ": 416,
      "åĵ": 417,
      "è¡Į": 418,
      "æŃ": 419,
      "åŃ¦": 420,
      "åĮĸ": 421,
      "è´": 422,
      "çŃī": 423,
      "æĶ": 424,
      "æĥ": 425,
      "éĿ": 426,
      "æĸ¹": 427,
      "on": 428,
      "ä½ľ": 429,
      "ä½ł": 430,
      "éľ": 431,
      "er": 432,
      "æĽ": 433,
      "ä¿Ŀ": 434,
      "âĢ": 435,
      "æĪĲ": 436,
      "at": 437,
      "ç®": 438,
      "å¿": 439,
      "ä»¬": 440,
      "æĭ": 441,
      "æĿ¥": 442,
      "åĬ¨": 443,
      "åĪĨ": 444,
      "ä¼ļ": 445,
      "éľĢ": 446,
      "ç¡": 447,
      "ä½ĵ": 448,
      "æĸĩ": 449,
      "ä¸ĭ": 450,
      "æµ": 451,
      "åı¯èĥ½": 452,
      "æĻ": 453,
      "æĽ´": 454,
      "åĪ°": 455,
      "æ³ķ": 456,
      "æį®": 457,
      "ä½¿": 458,
      "å®ļ": 459,
      "åıĳ": 460,
      "è§£": 461,
      "è¾": 462,
      "éĻ": 463,
      "æ°": 464,
      "å±": 465,
      "è¿Ľ": 466,
      "å¥": 467,
      "åºĶ": 468,
      "å·¥": 469,
      "åĲĮ": 470,
      "ç¡®": 471,
      "ç¨": 472,
      "äºĽ": 473,
      "èµ": 474,
      "èĩª": 475,
      "or": 476,
      "åĳ": 477,
      "åħ³": 478,
      "çİ°": 479,
      "Ġthe": 480,
      "æĬĢ": 481,
      "åŁ": 482,
      "ï¼Ł": 483,
      "ä¸Ģä¸ª": 484,
      "åº¦": 485,
      "Ġc": 486,
      "æ¯": 487,
      "å®ŀ": 488,
      "éĹ´": 489,
      "åĬĽ": 490,
      "åĲĪ": 491,
      "æ´": 492,
      "åİ": 493,
      "åľ°": 494,
      "æŀľ": 495,
      "å¤ļ": 496,
      "Ġs": 497,
      "en": 498,
      "an": 499,
      "ä½¿çĶ¨": 500,
      "ç³": 501,
      "es": 502,
      "æľ¯": 503,
      "é«": 504,
      "æ±": 505,
      "ï¼ī": 506,
      "å¢": 507,
      "ç¨ĭ": 508,
      "éĩı": 509,
      "é«ĺ": 510,
      "éĿ¢": 511,
      "é¢ĺ": 512,
      "æĸ°": 513,
      "ï¼Ī": 514,
      "ç¤": 515,
      "éģ": 516,
      "ç±": 517,
      "éĢļè¿ĩ": 518,
      "ä¸Ĭ": 519,
      "éĹ®": 520,
      "is": 521,
      "è½": 522,
      "çº": 523,
      "çī©": 524,
      "è®¡": 525,
      "ĊĠĠ": 526,
      "åĩº": 527,
      "æ²": 528,
      "å¤§": 529,
      "éľĢè¦ģ": 530,
      "æĥħ": 531,
      "æķ°æį®": 532,
      "ç³»": 533,
      "Ł¥": 534,
      "éĩį": 535,
      "åģ": 536,
      "ç«": 537,
      "æľĢ": 538,
      "ä¾Ľ": 539,
      "ç§į": 540,
      "æĮģ": 541,
      "åĬ©": 542,
      "éĺ": 543,
      "å¸¸": 544,
      "æĦŁ": 545,
      "åĬł": 546,
      "æľº": 547,
      "è®¾": 548,
      "æĦı": 549,
      "åħ¶": 550,
      "ä¸ļ": 551,
      "ç´": 552,
      "é£": 553,
      "å»": 554,
      "ç½": 555,
      "æģ": 556,
      "æ¸": 557,
      "æıĲä¾Ľ": 558,
      "ä¿¡": 559,
      "ou": 560,
      "å¼ı": 561,
      "è°": 562,
      "èī": 563,
      "è¶": 564,
      "ä»ĸ": 565,
      "ç±»": 566,
      "it": 567,
      "åĢ": 568,
      "è¡¨": 569,
      "èĢĮ": 570,
      "å»º": 571,
      "å°Ĩ": 572,
      "æķĪ": 573,
      "åħ¨": 574,
      "##": 575,
      "å½±": 576,
      "Ġ=": 577,
      "al": 578,
      "çī¹": 579,
      "çĦ": 580,
      "æ´»": 581,
      "ä¹ł": 582,
      "æĬĢæľ¯": 583,
      "åħ·": 584,
      "åĽł": 585,
      "ç®Ĺ": 586,
      "åŃĲ": 587,
      "Ġw": 588,
      "çľ": 589,
      "åĮħ": 590,
      "åĬ¡": 591,
      "Ġf": 592,
      "å¥½": 593,
      "å¹¶": 594,
      "å¤©": 595,
      "åĪ¶": 596,
      "çł": 597,
      "æľ¬": 598,
      "çĤ": 599,
      "Ġp": 600,
      "le": 601,
      "éĹ®é¢ĺ": 602,
      "èĢħ": 603,
      "æĪĳä»¬": 604,
      "âĢľ": 605,
      "æĻº": 606,
      "âĢĿ": 607,
      "æĤ": 608,
      "çķ": 609,
      "éĶ": 610,
      "åī": 611,
      "éļ": 612,
      "å±ķ": 613,
      "åĵģ": 614,
      "éª": 615,
      "ar": 616,
      "åĨħ": 617,
      "çİ¯": 618,
      "çĦ¶": 619,
      "ç»Ł": 620,
      "Ġ\"": 621,
      "ä»¶": 622,
      "æģ¯": 623,
      "Ġin": 624,
      "æ¬": 625,
      "é¡": 626,
      "ing": 627,
      "Ġo": 628,
      "ä»£": 629,
      "åĲİ": 630,
      "åĵį": 631,
      "åĪĽ": 632,
      "æ·": 633,
      "åħ¥": 634,
      "æĻºèĥ½": 635,
      "åıĬ": 636,
      "çĽ®": 637,
      "å¿ĥ": 638,
      "å®ĥ": 639,
      "èĤ": 640,
      "Ġm": 641,
      "ç»ĵ": 642,
      "çĿ": 643,
      "è¿Ľè¡Į": 644,
      "Ġan": 645,
      "å¦Ĥæŀľ": 646,
      "ä¹Ł": 647,
      "Ġ1": 648,
      "æ±Ĥ": 649,
      "å®¶": 650,
      "ç»ı": 651,
      "Ġb": 652,
      "çĸ": 653,
      "åŀ": 654,
      "æĪ·": 655,
      "æĹ¶éĹ´": 656,
      "åıĺ": 657,
      "``": 658,
      "åĨ³": 659,
      "å°ı": 660,
      "å¹³": 661,
      "åħ¬": 662,
      "è·": 663,
      "ä¸»": 664,
      "å¸®": 665,
      "éķ": 666,
      "çĤ¹": 667,
      "åŃĹ": 668,
      "åŃ¦ä¹ł": 669,
      "æľŁ": 670,
      "äº§": 671,
      "Ġ\\": 672,
      "å¼Ģ": 673,
      "æłĩ": 674,
      "ä¾ĭ": 675,
      "ä½Ĩ": 676,
      "Ġd": 677,
      "æº": 678,
      "ä¹ĭ": 679,
      "å½±åĵį": 680,
      "æ¨": 681,
      "çĽ¸": 682,
      "è¯Ĩ": 683,
      "è¯Ń": 684,
      "ç©": 685,
      "Ġ-": 686,
      "éĢĤ": 687,
      "ti": 688,
      "ä½ķ": 689,
      "ç¡®ä¿Ŀ": 690,
      "ç¬": 691,
      "æ¨¡": 692,
      "å¾Ĺ": 693,
      "èģ": 694,
      "ç¼": 695,
      "çĶµ": 696,
      "éĢī": 697,
      "ä¿¡æģ¯": 698,
      "è¿ĻäºĽ": 699,
      "ç¤¾": 700,
      "ed": 701,
      "Ġto": 702,
      "æĤ¨": 703,
      "ä¹Ī": 704,
      "ä»¥ä¸ĭ": 705,
      "ä»İ": 706,
      "è°ĥ": 707,
      "å®ī": 708,
      "å¸®åĬ©": 709,
      "åŃĺ": 710,
      "åŀĭ": 711,
      "æ¡": 712,
      "éķ¿": 713,
      "èĬ": 714,
      "äº¤": 715,
      "æİ¥": 716,
      "å¢ĥ": 717,
      "æºĲ": 718,
      "åĽ½": 719,
      "Ġof": 720,
      "çİĩ": 721,
      "å¤Ħ": 722,
      "éĽ": 723,
      "æīĢ": 724,
      "æ¯ı": 725,
      "éĥ": 726,
      "00": 727,
      "æĺİ": 728,
      "å°ĳ": 729,
      "çŁ¥": 730,
      "èĻ": 731,
      "èµĦ": 732,
      "æ°Ķ": 733,
      "çŃĸ": 734,
      "Ġn": 735,
      "è´¨": 736,
      "æĭ¬": 737,
      "ro": 738,
      "çĿĢ": 739,
      "åĻ": 740,
      "Ġand": 741,
      "æ¶": 742,
      "ç³»ç»Ł": 743,
      "æŃ¥": 744,
      "äºĭ": 745,
      "éĥ¨": 746,
      "æķ´": 747,
      "åĮħæĭ¬": 748,
      "æŃ£": 749,
      "ç¾": 750,
      "å¯¼": 751,
      "å¤į": 752,
      "åºĶçĶ¨": 753,
      "åĩĨ": 754,
      "åľº": 755,
      "ic": 756,
      "åĿ": 757,
      "è¯·": 758,
      "åĻ¨": 759,
      "ac": 760,
      "éĥ½": 761,
      "ç§ĳ": 762,
      "å®¹": 763,
      "å½ĵ": 764,
      "åıĸ": 765,
      "é¦": 766,
      "åīį": 767,
      "as": 768,
      "ä¸įåĲĮ": 769,
      "éªĮ": 770,
      "åĢ¼": 771,
      "æ·±": 772,
      "èī²": 773,
      "åŁº": 774,
      "ä»»": 775,
      "äººå·¥": 776,
      "æ°´": 777,
      "ä¸ŃçļĦ": 778,
      "æľį": 779,
      "Ġis": 780,
      "ç®¡": 781,
      "æ³¨": 782,
      "å¢ŀ": 783,
      "å¤Ł": 784,
      "æ¯Ķ": 785,
      "ç´ł": 786,
      "Ġre": 787,
      "æµģ": 788,
      "åıĳå±ķ": 789,
      "è§Ħ": 790,
      "æĹł": 791,
      "å¼º": 792,
      "ä¼ĺ": 793,
      "äººå·¥æĻºèĥ½": 794,
      "ç½ĳ": 795,
      "çĶ¨æĪ·": 796,
      "è®®": 797,
      "çİ¯å¢ĥ": 798,
      "èĢĥ": 799,
      "æĬ¤": 800,
      "æĥ³": 801,
      "åħĥ": 802,
      "è¿ĺ": 803,
      "åŁŁ": 804,
      "æĭ©": 805,
      "um": 806,
      "åĮ»": 807,
      "å¦Ĥä½ķ": 808,
      "éĢīæĭ©": 809,
      "åĪ©": 810,
      "é£İ": 811,
      "et": 812,
      "æŀĦ": 813,
      "æŁ": 814,
      "æŀĲ": 815,
      "é¢Ĩ": 816,
      "æŁ¥": 817,
      "è®¡ç®Ĺ": 818,
      "åĩı": 819,
      "ãģ": 820,
      "éħ": 821,
      "ä½į": 822,
      "éĩįè¦ģ": 823,
      "Ġ2": 824,
      "ä¸ĢäºĽ": 825,
      "æŃ¤": 826,
      "æĢģ": 827,
      "è§Ĥ": 828,
      "è¯ķ": 829,
      "è¢": 830,
      "å¸Ĥ": 831,
      "å¤ĦçĲĨ": 832,
      "ç¤º": 833,
      "åĪ«": 834,
      "çĲĨè§£": 835,
      "æł·": 836,
      "ä¼ł": 837,
      "æ®": 838,
      "åĨµ": 839,
      "Ġe": 840,
      "æıĲé«ĺ": 841,
      "st": 842,
      "å¤ĩ": 843,
      "æµĭ": 844,
      "æĹ¥": 845,
      "éĢļå¸¸": 846,
      "åĪĨæŀĲ": 847,
      "å®īåħ¨": 848,
      "æľª": 849,
      "æķĻ": 850,
      "æł¹": 851,
      "AI": 852,
      "æĸĩåĮĸ": 853,
      "ion": 854,
      "åģ¥": 855,
      "åĲĮæĹ¶": 856,
      "Ġl": 857,
      "å¹´": 858,
      "ä»·": 859,
      "èĥ½å¤Ł": 860,
      "è¿°": 861,
      "çĲĥ": 862,
      "å¤ĸ": 863,
      "æĶ¹": 864,
      "çĹ": 865,
      "æ»": 866,
      "è¿Ļä¸ª": 867,
      "è®º": 868,
      "om": 869,
      "çľĭ": 870,
      "åıĹ": 871,
      "åıį": 872,
      "æľįåĬ¡": 873,
      "ç¾İ": 874,
      "th": 875,
      "çĥ": 876,
      "æĶ¯": 877,
      "æĮĩ": 878,
      "ç»Ń": 879,
      "æİ¨": 880,
      "è¿Ĳ": 881,
      "çłģ": 882,
      "çĸĹ": 883,
      "å½¢": 884,
      "èĬĤ": 885,
      "ç»Ħ": 886,
      "è¢«": 887,
      "çĶŁæ´»": 888,
      "äººç±»": 889,
      "åħ±": 890,
      "æĸ¹å¼ı": 891,
      "é¢Ħ": 892,
      "æīĭ": 893,
      "Ł³": 894,
      "æł¼": 895,
      "ä¾ĭå¦Ĥ": 896,
      "é£Ł": 897,
      "åĮº": 898,
      "ent": 899,
      "æ²¡": 900,
      "é¢ĨåŁŁ": 901,
      "éĢŁ": 902,
      "ä¹ī": 903,
      "åķ": 904,
      "æ£": 905,
      "çģ": 906,
      "åº·": 907,
      "ä»Ģ": 908,
      "è¿ĳ": 909,
      "éĤ": 910,
      "ä»Ģä¹Ī": 911,
      "åĪĹ": 912,
      "ä»ħ": 913,
      "ç®¡çĲĨ": 914,
      "ä»¥åıĬ": 915,
      "ä¸ªäºº": 916,
      "èĥ": 917,
      "çķĮ": 918,
      "èº": 919,
      "Ġy": 920,
      "é¡¹": 921,
      "çº¿": 922,
      "ä¸ĵ": 923,
      "è¿ĩç¨ĭ": 924,
      "å·¥ä½ľ": 925,
      "###": 926,
      "ç²": 927,
      "åıĤ": 928,
      "æĸ¹æ³ķ": 929,
      "\":": 930,
      "éĿŀ": 931,
      "æł¹æį®": 932,
      "Ġh": 933,
      "åģ¥åº·": 934,
      "æĸŃ": 935,
      "èº«": 936,
      "å¼ķ": 937,
      "åĲį": 938,
      "ur": 939,
      "ate": 940,
      "èĩ´": 941,
      "åĬŁ": 942,
      "è§Ĩ": 943,
      "çĬ": 944,
      "ç¤¾ä¼ļ": 945,
      "åħį": 946,
      "åĪĻ": 947,
      "åįķ": 948,
      "æ²¡æľī": 949,
      "è®¾è®¡": 950,
      "è±": 951,
      "æ¬¡": 952,
      "æĥħåĨµ": 953,
      "è¨": 954,
      "ç»´": 955,
      "åºı": 956,
      "æ®µ": 957,
      "åįĩ": 958,
      "åĸ": 959,
      "åĳĺ": 960,
      "åİŁ": 961,
      "im": 962,
      "èį": 963,
      "ä¿ĿæĮģ": 964,
      "è®©": 965,
      "è¾¾": 966,
      "ul": 967,
      "åĩıå°ĳ": 968,
      "åĽ¾": 969,
      "æĻ¯": 970,
      "åħ·ä½ĵ": 971,
      "de": 972,
      "åĽŀ": 973,
      "åĲ¦": 974,
      "èµ·": 975,
      "å·±": 976,
      "```": 977,
      "æĢ»": 978,
      "èĩªå·±": 979,
      "ow": 980,
      "åĨħå®¹": 981,
      "éģĵ": 982,
      "èĲ": 983,
      "éĻħ": 984,
      "å§": 985,
      "ç«ĭ": 986,
      "èĭ": 987,
      "æĶ¶": 988,
      "è®¤": 989,
      "è¨Ģ": 990,
      "ç¥": 991,
      "åĲĳ": 992,
      "am": 993,
      "è§£åĨ³": 994,
      "å®ŀçİ°": 995,
      "æĢĿ": 996,
      "çĭ": 997,
      "ç©º": 998,
      "ĠĠĠĠ": 999,
      "éĩĮ": 1000,
      "åħĪ": 1001,
      "çĽ´": 1002,
      "æ¡Ī": 1003,
      "ç¬¦": 1004,
      "ĊĠĠĠ": 1005,
      "å»ºè®®": 1006,
      "èİ": 1007,
      "ç½®": 1008,
      "æī¾": 1009,
      "éĽĨ": 1010,
      "éľĢæ±Ĥ": 1011,
      "è§Ĵ": 1012,
      "å®Į": 1013,
      "åĨĻ": 1014,
      "èĥ½åĬĽ": 1015,
      "ä»ĸä»¬": 1016,
      "il": 1017,
      "éŁ³": 1018,
      "Ġth": 1019,
      "te": 1020,
      "èĻĳ": 1021,
      "éģ¿": 1022,
      "éĢł": 1023,
      "éĶ®": 1024,
      "æ´»åĬ¨": 1025,
      "éĻĲ": 1026,
      "ä¸įä»ħ": 1027,
      "æĸ¹éĿ¢": 1028,
      "è¯Ŀ": 1029,
      "ä¸¤": 1030,
      "Ġ3": 1031,
      "çĬ¶": 1032,
      "Ġ$": 1033,
      "è®°": 1034,
      "è¾ĵ": 1035,
      "æĶ¾": 1036,
      "åİĨ": 1037,
      "Ġyou": 1038,
      "èĤ²": 1039,
      "ä»¥ä¸ĭæĺ¯": 1040,
      "é¥": 1041,
      "æĺ¯åĲ¦": 1042,
      "ä½łçļĦ": 1043,
      "ers": 1044,
      "éĻ©": 1045,
      "éļı": 1046,
      "ç»Ĩ": 1047,
      "ve": 1048,
      "us": 1049,
      "ä¿ĿæĬ¤": 1050,
      "ge": 1051,
      "è±¡": 1052,
      "è¯´": 1053,
      "ç¼ĸ": 1054,
      "éģ¿åħį": 1055,
      "åħī": 1056,
      "è½¬": 1057,
      "çłĶ": 1058,
      "æĪĺ": 1059,
      "æľªæĿ¥": 1060,
      "éĩĳ": 1061,
      "å¿«": 1062,
      "æĵ": 1063,
      "ol": 1064,
      "ç´¢": 1065,
      "çĶ¨äºİ": 1066,
      "æķĪçİĩ": 1067,
      "èµĦæºĲ": 1068,
      "ç»Ļ": 1069,
      "èĦ": 1070,
      "å¾ĭ": 1071,
      "æ¨¡åŀĭ": 1072,
      "éĴ": 1073,
      "åŃĺåľ¨": 1074,
      "çĽ®æłĩ": 1075,
      "æľĢè¿ĳ": 1076,
      "çĶ±": 1077,
      "å£": 1078,
      "Ġ+": 1079,
      "æĶ¯æĮģ": 1080,
      "å¸¦": 1081,
      "éĵ": 1082,
      "ec": 1083,
      "å®¢": 1084,
      "ä»£çłģ": 1085,
      "éĺŁ": 1086,
      "æİĴ": 1087,
      "æĥħæĦŁ": 1088,
      "æİ§": 1089,
      "çķ¥": 1090,
      "åĩł": 1091,
      "è¯Ħ": 1092,
      "æĮģç»Ń": 1093,
      "ä¹ĭéĹ´": 1094,
      "æĿĤ": 1095,
      "åĩ½": 1096,
      "æ»¡": 1097,
      "èģĶ": 1098,
      "åħ³éĶ®": 1099,
      "ä¹Ĳ": 1100,
      "è£": 1101,
      "ation": 1102,
      "äºĴ": 1103,
      "çĶŁæĪĲ": 1104,
      "åķĨ": 1105,
      "ç«ł": 1106,
      "æ²»": 1107,
      "èĢĥèĻĳ": 1108,
      "ce": 1109,
      "è¿Ļç§į": 1110,
      "ï¼ģ": 1111,
      "é©": 1112,
      "æıĲåįĩ": 1113,
      "è¶³": 1114,
      "åĩ½æķ°": 1115,
      "Ġg": 1116,
      "yth": 1117,
      "è¯Ńè¨Ģ": 1118,
      "éħį": 1119,
      "è¯¥": 1120,
      "The": 1121,
      "è¯ģ": 1122,
      "æĶ¿": 1123,
      "æĿĥ": 1124,
      "ç®Ĺæ³ķ": 1125,
      "æĸĻ": 1126,
      "èĪ": 1127,
      "æİ¢": 1128,
      "æķĻèĤ²": 1129,
      "æĺ¯ä¸Ģä¸ª": 1130,
      "æ¸ħ": 1131,
      "ython": 1132,
      "åĽ¢": 1133,
      "çī¹å®ļ": 1134,
      "èĮ": 1135,
      "åĪĴ": 1136,
      "æĿ¡": 1137,
      "ç§¯": 1138,
      "ä¸Ģç§į": 1139,
      "ä¼ĺåĮĸ": 1140,
      "å¸Ĥåľº": 1141,
      "nt": 1142,
      "è°ĥæķ´": 1143,
      "å¯¼èĩ´": 1144,
      "ç²¾": 1145,
      "èİ·": 1146,
      "å¤įæĿĤ": 1147,
      "ä¸»è¦ģ": 1148,
      "èĩªçĦ¶": 1149,
      "ä¸ī": 1150,
      "äº§åĵģ": 1151,
      "Ġ`": 1152,
      "æ£Ģ": 1153,
      "æ¸¸": 1154,
      "Ġfor": 1155,
      "æ¸©": 1156,
      "if": 1157,
      "ĠI": 1158,
      "è¯»": 1159,
      "è´¹": 1160,
      "éĤ£": 1161,
      "åĬŁèĥ½": 1162,
      "æĸ½": 1163,
      "æĸĩç«ł": 1164,
      "è¶£": 1165,
      "åĲ«": 1166,
      "å¹¿": 1167,
      "è½¦": 1168,
      "çĹħ": 1169,
      "åıĺåĮĸ": 1170,
      "å§ĭ": 1171,
      "ç®Ģ": 1172,
      "é¦ĸ": 1173,
      "ä»Ĭ": 1174,
      "å®ĥä»¬": 1175,
      "è¯į": 1176,
      "å¯¹äºİ": 1177,
      "äºĨè§£": 1178,
      "åħ¶ä»ĸ": 1179,
      "å¥½çļĦ": 1180,
      "å°±": 1181,
      "æŀģ": 1182,
      "qu": 1183,
      "æį¢": 1184,
      "æŁĲ": 1185,
      "un": 1186,
      "åĽłæŃ¤": 1187,
      "å¾Ī": 1188,
      "ä½ĵéªĮ": 1189,
      "åĲĦ": 1190,
      "è·¯": 1191,
      "åı¸": 1192,
      "äº«": 1193,
      "å·¥åħ·": 1194,
      "æıı": 1195,
      "åĮ»çĸĹ": 1196,
      "çĪ": 1197,
      "åı¯èĥ½ä¼ļ": 1198,
      "20": 1199,
      "ig": 1200,
      "ch": 1201,
      "æ¼": 1202,
      "çĻ": 1203,
      "æ¶Ī": 1204,
      "åı¥": 1205,
      "åģļ": 1206,
      "ç§ĳæĬĢ": 1207,
      "ä¿ĥ": 1208,
      "æľīæķĪ": 1209,
      "åİ»": 1210,
      "ç©¶": 1211,
      "ot": 1212,
      "èĩªæĪĳ": 1213,
      "å·²": 1214,
      "èīº": 1215,
      "ç¦": 1216,
      "å¢ŀåĬł": 1217,
      "æĵį": 1218,
      "è§ī": 1219,
      "æĢ§åĴĮ": 1220,
      "ä½ľä¸º": 1221,
      "10": 1222,
      "æĸ°çļĦ": 1223,
      "xt": 1224,
      "çĽ¸åħ³": 1225,
      "ly": 1226,
      "çŃĸçķ¥": 1227,
      "åĥ": 1228,
      "è§ģ": 1229,
      "è¡¡": 1230,
      "åħ³ç³»": 1231,
      "çľŁ": 1232,
      "çłĶç©¶": 1233,
      "ä¸ĸ": 1234,
      "åı£": 1235,
      "åħ³äºİ": 1236,
      "åı°": 1237,
      "Ġor": 1238,
      "ç»ľ": 1239,
      "è¾ĥ": 1240,
      "åį³": 1241,
      "åħħ": 1242,
      "æķ°åŃĹ": 1243,
      "æķħ": 1244,
      "æīĢæľī": 1245,
      "ä¹¦": 1246,
      "tim": 1247,
      "ç½ĳç»ľ": 1248,
      "è´¨éĩı": 1249,
      "æĺĵ": 1250,
      "ç»ĵæŀľ": 1251,
      "æĦıè¯Ĩ": 1252,
      "æĵįä½ľ": 1253,
      "å¯Ĩ": 1254,
      "åĽ¢éĺŁ": 1255,
      "æľīåĬ©": 1256,
      "åĳ³": 1257,
      "èĩªå·±çļĦ": 1258,
      "æľīåĬ©äºİ": 1259,
      "ä½İ": 1260,
      "id": 1261,
      "\",": 1262,
      "çĭ¬": 1263,
      "è¯¯": 1264,
      "åĥı": 1265,
      "åħ¬åı¸": 1266,
      "çŁ¥è¯Ĩ": 1267,
      "ä»·åĢ¼": 1268,
      "Ġr": 1269,
      "Ġ5": 1270,
      "ä¸ĵä¸ļ": 1271,
      "ä»Ĭå¤©": 1272,
      "çŁ": 1273,
      "ãĤ": 1274,
      "ĠA": 1275,
      "è®Ń": 1276,
      "å¼Ģåıĳ": 1277,
      "æĮĳ": 1278,
      "ç¬¬": 1279,
      "é¡¹çĽ®": 1280,
      "ç»ĥ": 1281,
      "ħ§": 1282,
      "ay": 1283,
      "ä»»åĬ¡": 1284,
      "ãĢĭ": 1285,
      "ãĢĬ": 1286,
      "ĠC": 1287,
      "çīĩ": 1288,
      "åĲĹ": 1289,
      "ä¸Ķ": 1290,
      "çª": 1291,
      "è¯¢": 1292,
      "éĶĻ": 1293,
      "el": 1294,
      "ä¼¦": 1295,
      "Ġ4": 1296,
      "åıª": 1297,
      "é£İéĻ©": 1298,
      "è¾¹": 1299,
      "èĩ³": 1300,
      "å¤©æ°Ķ": 1301,
      "ç»ĵæŀĦ": 1302,
      "æľĽ": 1303,
      "çŃĶ": 1304,
      "æĮĳæĪĺ": 1305,
      "ĠS": 1306,
      "è®¾å¤ĩ": 1307,
      "tion": 1308,
      "è£ħ": 1309,
      "æµ·": 1310,
      "Ġ(": 1311,
      "å¼Ĥ": 1312,
      "åĪ©çĶ¨": 1313,
      "è®¸": 1314,
      "åĳĬ": 1315,
      "æĬķ": 1316,
      "ä¿ĥè¿Ľ": 1317,
      "çĥŃ": 1318,
      "éª¤": 1319,
      "è¡Įä¸º": 1320,
      "åİĭ": 1321,
      "åĳ½": 1322,
      "umb": 1323,
      "æŃ¥éª¤": 1324,
      "è½»": 1325,
      "ç¥ŀ": 1326,
      "èĲ¥": 1327,
      "åĪĽæĸ°": 1328,
      "åħĥç´ł": 1329,
      "è¡¨è¾¾": 1330,
      "ver": 1331,
      "ç¯": 1332,
      "æĽ´åĬł": 1333,
      "æııè¿°": 1334,
      "åĩĨç¡®": 1335,
      "ä¾¿": 1336,
      "Ġcan": 1337,
      "åĽłä¸º": 1338,
      "æĳ": 1339,
      "æµİ": 1340,
      "åĵª": 1341,
      "ç¢": 1342,
      "éĥ¨åĪĨ": 1343,
      "å¸ĥ": 1344,
      "int": 1345,
      "her": 1346,
      "åĨ³çŃĸ": 1347,
      "ç»ıæµİ": 1348,
      "çĮ": 1349,
      "éĺ²": 1350,
      "é»": 1351,
      "åħ¨çĲĥ": 1352,
      "ut": 1353,
      "åı²": 1354,
      "ä¼¦çĲĨ": 1355,
      "è¶Ĭ": 1356,
      "ew": 1357,
      "æ³ķå¾ĭ": 1358,
      "éĩĩ": 1359,
      "è®¨": 1360,
      "Ġpro": 1361,
      "æľºåĻ¨": 1362,
      "èŀ": 1363,
      "æĹłæ³ķ": 1364,
      "æĪĸèĢħ": 1365,
      "ab": 1366,
      "å®ŀéĻħ": 1367,
      "åĲĪä½ľ": 1368,
      "èīºæľ¯": 1369,
      "åı·": 1370,
      "æĺ¾": 1371,
      "åħ´": 1372,
      "åĲ¸": 1373,
      "and": 1374,
      "åħ»": 1375,
      "ä¼°": 1376,
      "Ġwe": 1377,
      "lo": 1378,
      "åºĵ": 1379,
      "ç§ĳåŃ¦": 1380,
      "çĽ´æİ¥": 1381,
      "åįı": 1382,
      "æĺŁ": 1383,
      "æ°ĳ": 1384,
      "éĩĬ": 1385,
      "çļĦæĺ¯": 1386,
      "ä¹ĭéĹ´çļĦ": 1387,
      "å¤±": 1388,
      "ith": 1389,
      "æĿĲ": 1390,
      "æ³¨æĦı": 1391,
      "æİ§åĪ¶": 1392,
      "èģĮ": 1393,
      "æľĪ": 1394,
      "æĽ´å¤ļ": 1395,
      "å·®": 1396,
      "åĬ¿": 1397,
      "ç¿": 1398,
      "æļ": 1399,
      "å½ķ": 1400,
      "å±Ĥ": 1401,
      "èĭ±": 1402,
      "Ġcon": 1403,
      "ä¸ĸçķĮ": 1404,
      "åĽ´": 1405,
      "åĽłç´ł": 1406,
      "èŀį": 1407,
      "æĬ¥": 1408,
      "éĹ¨": 1409,
      "res": 1410,
      "\\)": 1411,
      "æ¿": 1412,
      "æĲ": 1413,
      "ĠP": 1414,
      "çļĦå½±åĵį": 1415,
      "å°Ŀ": 1416,
      "ri": 1417,
      "é¦ĸåħĪ": 1418,
      "ä¸ŃåĽ½": 1419,
      "ä¸įåĲĮçļĦ": 1420,
      "éĿŀå¸¸": 1421,
      "çĽĳ": 1422,
      "å¿µ": 1423,
      "èı": 1424,
      "å¹³è¡¡": 1425,
      "æ£ĢæŁ¥": 1426,
      "å»ºç«ĭ": 1427,
      "æ¿Ģ": 1428,
      "åĶ": 1429,
      "éļĲ": 1430,
      "Ġas": 1431,
      "Ġ\\(": 1432,
      "çº§": 1433,
      "ĊĠĠĠĠĠĠ": 1434,
      "éĻ¤": 1435,
      "çİ¯ä¿Ŀ": 1436,
      "Ġst": 1437,
      "æĸĩä»¶": 1438,
      "æĪı": 1439,
      "æĪĲä¸º": 1440,
      "ä»İèĢĮ": 1441,
      "éĢĤåĲĪ": 1442,
      "å¸¦æĿ¥": 1443,
      "ist": 1444,
      "ä¿®": 1445,
      "åıĤä¸İ": 1446,
      "ir": 1447,
      "èĥĮ": 1448,
      "æīĵ": 1449,
      "éģĩ": 1450,
      "rac": 1451,
      "èĩªåĬ¨": 1452,
      "åĬ±": 1453,
      "æī¾åĪ°": 1454,
      "æĴ": 1455,
      "ind": 1456,
      "æľīæ²¡æľī": 1457,
      "å¯»": 1458,
      "åİĨåı²": 1459,
      "æĸĩæľ¬": 1460,
      "åŃĹç¬¦": 1461,
      "åĤ": 1462,
      "æ¦Ĥ": 1463,
      "å°Ŀè¯ķ": 1464,
      "è¯Ħä¼°": 1465,
      "è´£": 1466,
      "ï¼Ľ": 1467,
      "åŁİ": 1468,
      "éĶĢ": 1469,
      "å¹³åı°": 1470,
      "éļ¾": 1471,
      "ç±»åŀĭ": 1472,
      "å¸Ī": 1473,
      "ç¯ĩ": 1474,
      "çº¦": 1475,
      "å¡": 1476,
      "Ġit": 1477,
      "--": 1478,
      "è¿ŀ": 1479,
      "ä¼ģ": 1480,
      "est": 1481,
      "è´Ń": 1482,
      "å¾Ģ": 1483,
      "æī§": 1484,
      "çİ°åľ¨": 1485,
      "ç«Ļ": 1486,
      "åıĭ": 1487,
      "ess": 1488,
      "æ¤": 1489,
      "åŁºäºİ": 1490,
      "å¯Į": 1491,
      "æ¸¸æĪı": 1492,
      "ad": 1493,
      "é¢ĳ": 1494,
      "æķħäºĭ": 1495,
      "èĮĥ": 1496,
      "se": 1497,
      "é«ĺæķĪ": 1498,
      "Ġwith": 1499,
      "é¥®": 1500,
      "åĳ¨": 1501,
      "å¼Ģå§ĭ": 1502,
      "ä»½": 1503,
      "Ġthat": 1504,
      "å¿ħ": 1505,
      "pp": 1506,
      "çªģ": 1507,
      "ä¼Ĺ": 1508,
      "äºĮ": 1509,
      "urre": 1510,
      "éĻį": 1511,
      "ä¼ģä¸ļ": 1512,
      "çħ§": 1513,
      "è¯ĨåĪ«": 1514,
      "em": 1515,
      "æ¯ıä¸ª": 1516,
      "äººä»¬": 1517,
      "å¿«éĢŁ": 1518,
      "text": 1519,
      "æ¶ī": 1520,
      "æİ¢ç´¢": 1521,
      "èĳ": 1522,
      "å¢ŀå¼º": 1523,
      "è¾ĳ": 1524,
      "åĮħåĲ«": 1525,
      "ä¸įæĸŃ": 1526,
      "å®ĮæĪĲ": 1527,
      "ç§ģ": 1528,
      "ç¨ĭåºı": 1529,
      "åĸľ": 1530,
      "äº§çĶŁ": 1531,
      "ĠT": 1532,
      "Ġv": 1533,
      "æĸ¹æ¡Ī": 1534,
      "æ¢": 1535,
      "çĽĬ": 1536,
      "æĪĲæľ¬": 1537,
      "è½¯": 1538,
      "æĢ§èĥ½": 1539,
      "çĦ¶åĲİ": 1540,
      "å®ļæľŁ": 1541,
      "æ¶īåıĬ": 1542,
      "éĢĤåºĶ": 1543,
      "æĹħ": 1544,
      "Ġon": 1545,
      "å¸Į": 1546,
      "ht": 1547,
      "å¿ĥçĲĨ": 1548,
      "age": 1549,
      "æ¼Ķ": 1550,
      "åħ·æľī": 1551,
      "çĪ±": 1552,
      "æ²»çĸĹ": 1553,
      "æŃ£ç¡®": 1554,
      "Ġex": 1555,
      "{\"": 1556,
      "æī§è¡Į": 1557,
      "åĢĻ": 1558,
      "æĿ¡ä»¶": 1559,
      "ke": 1560,
      "'s": 1561,
      "å¾ģ": 1562,
      "éĺħ": 1563,
      "Ġ0": 1564,
      "æ¯Ķå¦Ĥ": 1565,
      "çģµ": 1566,
      "è¿ľ": 1567,
      "è´Ł": 1568,
      "ä½łåı¯ä»¥": 1569,
      "Ġnumb": 1570,
      "æ³Ľ": 1571,
      "éļıçĿĢ": 1572,
      "éĶĻè¯¯": 1573,
      "åĪĹè¡¨": 1574,
      "Ġbe": 1575,
      "åºĶè¯¥": 1576,
      "æĬĢèĥ½": 1577,
      "åıĳçİ°": 1578,
      "Ġ6": 1579,
      "Ġus": 1580,
      "iv": 1581,
      "ãĥ": 1582,
      "ç»Ī": 1583,
      "ç¤¾äº¤": 1584,
      "åĨį": 1585,
      "ult": 1586,
      "å¯¹è¯Ŀ": 1587,
      "èĬ±": 1588,
      "ç§°": 1589,
      "èİ·åıĸ": 1590,
      "æ¬¾": 1591,
      "å¤´": 1592,
      "æ²Ł": 1593,
      "å¾ª": 1594,
      "åı¯èĥ½éľĢè¦ģ": 1595,
      "ä¾Ŀ": 1596,
      "æĶ¿çŃĸ": 1597,
      "æ¬¢": 1598,
      "äººçļĦ": 1599,
      "è¡Įä¸ļ": 1600,
      "åŃ¦çĶŁ": 1601,
      "é¸": 1602,
      "ç±³": 1603,
      "ä½ľçĶ¨": 1604,
      "åĪĽéĢł": 1605,
      "æłĩåĩĨ": 1606,
      "æŁĵ": 1607,
      "åħ´è¶£": 1608,
      "åŁ¹": 1609,
      "çī¹åĪ«": 1610,
      "åħĭ": 1611,
      "åĪĽå»º": 1612,
      "æĤ¨çļĦ": 1613,
      "ä¸ĬçļĦ": 1614,
      "åĿĹ": 1615,
      "è®¡åĪĴ": 1616,
      "ï¼īï¼Į": 1617,
      "è¾ĵåħ¥": 1618,
      "åħ±åĲĮ": 1619,
      "æ½": 1620,
      "æĭŁ": 1621,
      "æµĭè¯ķ": 1622,
      "åı¯ä»¥å¸®åĬ©": 1623,
      "è®Ńç»ĥ": 1624,
      "é¼": 1625,
      "åĤ¨": 1626,
      "è¯¦": 1627,
      "è§Ĵèī²": 1628,
      "ort": 1629,
      "è¿ĲåĬ¨": 1630,
      "åĮĹ": 1631,
      "æ¨¡å¼ı": 1632,
      "é¢Ħæµĭ": 1633,
      "å®¢æĪ·": 1634,
      "ä¸¤ä¸ª": 1635,
      "ï¼īãĢĤ": 1636,
      "æĶ¹åıĺ": 1637,
      "å°½": 1638,
      "è¿Ļæł·": 1639,
      "å¥¹": 1640,
      "æł¸": 1641,
      "æĬķèµĦ": 1642,
      "æĦıä¹ī": 1643,
      "ç¿»": 1644,
      "å¤§çļĦ": 1645,
      "100": 1646,
      "è¿ĩç¨ĭä¸Ń": 1647,
      "èį¯": 1648,
      "è§£éĩĬ": 1649,
      "ç¦»": 1650,
      "ç¼ĸç¨ĭ": 1651,
      "æŀ¶": 1652,
      "oo": 1653,
      "åĩłä¸ª": 1654,
      "æ²ŁéĢļ": 1655,
      "ä¸ºäºĨ": 1656,
      "ĠE": 1657,
      "åħ³æ³¨": 1658,
      "çĬ¶æĢģ": 1659,
      "ç»ĩ": 1660,
      "Ġ|": 1661,
      "ç¨³": 1662,
      "our": 1663,
      "å½ĵåīį": 1664,
      "åŁİå¸Ĥ": 1665,
      "ds": 1666,
      "ä¼łç»Ł": 1667,
      "å¤ª": 1668,
      "å±ŀ": 1669,
      "æĬĢæľ¯çļĦ": 1670,
      "çĶŁçī©": 1671,
      "ä»¥ä¸ĭæĺ¯ä¸ĢäºĽ": 1672,
      "rom": 1673,
      "éģĩåĪ°": 1674,
      "äºī": 1675,
      "ä¹°": 1676,
      "æĢİ": 1677,
      "æİª": 1678,
      "è¯ĳ": 1679,
      "æıĲä¾ĽäºĨ": 1680,
      "çĶ»": 1681,
      "åģĩ": 1682,
      "åĿĩ": 1683,
      "è¯¦ç»Ĩ": 1684,
      "é¦Ī": 1685,
      "çŁŃ": 1686,
      "èĥĮæĻ¯": 1687,
      "å¹¿æ³Ľ": 1688,
      "æĮī": 1689,
      "å£°": 1690,
      "éĺ³": 1691,
      "åŁºç¡": 1692,
      "åŁºç¡Ģ": 1693,
      "éŁ³ä¹Ĳ": 1694,
      "å·²ç»ı": 1695,
      "çĻ½": 1696,
      "æĽ´å¥½": 1697,
      "åĲ¬": 1698,
      "æĢ§çļĦ": 1699,
      "æŁĲäºĽ": 1700,
      "å¾ħ": 1701,
      "åİĭåĬĽ": 1702,
      "æĥħåĨµä¸ĭ": 1703,
      "åıįé¦Ī": 1704,
      "ĠF": 1705,
      "å¤ļä¸ª": 1706,
      "å¼ł": 1707,
      "æ·±åº¦": 1708,
      "è¦ģæ±Ĥ": 1709,
      "å¾®": 1710,
      "Ġare": 1711,
      "èħ": 1712,
      "éļĲç§ģ": 1713,
      "éĵ¾": 1714,
      "ore": 1715,
      "æİªæĸ½": 1716,
      "ment": 1717,
      "åĪĽä½ľ": 1718,
      "è½¯ä»¶": 1719,
      "åĮ»çĶŁ": 1720,
      "åĸĦ": 1721,
      "rint": 1722,
      "ç¡®å®ļ": 1723,
      "å¸ĮæľĽ": 1724,
      "ld": 1725,
      "ç§»": 1726,
      "ç»ª": 1727,
      "å®ļä¹ī": 1728,
      "ter": 1729,
      "ue": 1730,
      "åĪ¤": 1731,
      "ä»»ä½ķ": 1732,
      "Ġk": 1733,
      "Python": 1734,
      "æİ¨åĬ¨": 1735,
      "éĹ»": 1736,
      "çĶµå½±": 1737,
      "è¶ħ": 1738,
      "çīĮ": 1739,
      "ä¼¼": 1740,
      "èıľ": 1741,
      "ä¸°": 1742,
      "è¿½": 1743,
      "é¢Ŀ": 1744,
      "æĺİç¡®": 1745,
      "ç§¯æŀģ": 1746,
      "ĠH": 1747,
      "è®¿": 1748,
      "urrent": 1749,
      "ct": 1750,
      "èī¯": 1751,
      "æĽ´å¥½åľ°": 1752,
      "Ġby": 1753,
      "ity": 1754,
      "éĺħè¯»": 1755,
      "åı¯ä»¥éĢļè¿ĩ": 1756,
      "ä¸įæĺ¯": 1757,
      "ç¨³å®ļ": 1758,
      "èįĲ": 1759,
      "äº¬": 1760,
      "æİ¨èįĲ": 1761,
      "æĥħç»ª": 1762,
      "av": 1763,
      "pl": 1764,
      "hat": 1765,
      "æ¤į": 1766,
      "Ġ'": 1767,
      "}{": 1768,
      "åĩĨå¤ĩ": 1769,
      "åģı": 1770,
      "æĺ¯ä¸Ģç§į": 1771,
      "æĿĲæĸĻ": 1772,
      "é¤": 1773,
      "å¤ļå°ĳ": 1774,
      "ç´§": 1775,
      "out": 1776,
      "ĊĠĠĠĠĠĠĠ": 1777,
      "åĪ»": 1778,
      "Ġtr": 1779,
      "çļĦéĩįè¦ģ": 1780,
      "()": 1781,
      "åľºæĻ¯": 1782,
      "ain": 1783,
      "åĪ¶å®ļ": 1784,
      "ide": 1785,
      "Ġhe": 1786,
      "åºŃ": 1787,
      "åı¤": 1788,
      "åŁºæľ¬": 1789,
      "frac": 1790,
      "èĢģ": 1791,
      "é¤Ĳ": 1792,
      "ans": 1793,
      "å¨": 1794,
      "èĳĹ": 1795,
      "æ»¡è¶³": 1796,
      "éĤ£ä¹Ī": 1797,
      "éĢŁåº¦": 1798,
      "æ½ľ": 1799,
      "çīĪ": 1800,
      "åĲĦç§į": 1801,
      "æĪĳä»¬çļĦ": 1802,
      "ä¸°å¯Į": 1803,
      "åŃ©": 1804,
      "ç¿»è¯ĳ": 1805,
      "èº«ä½ĵ": 1806,
      "ç»´æĬ¤": 1807,
      "çİ°ä»£": 1808,
      "å¾·": 1809,
      "åĪĨäº«": 1810,
      "æĪ¿": 1811,
      "åª": 1812,
      "ç»¼": 1813,
      "åħ·ä½ĵçļĦ": 1814,
      "Ġcurrent": 1815,
      "è·¨": 1816,
      "äºĳ": 1817,
      "Ġnumber": 1818,
      "çĭ¬çī¹": 1819,
      "ĠN": 1820,
      "è®¾ç½®": 1821,
      "æľĭ": 1822,
      "åĩ»": 1823,
      "è®°å½ķ": 1824,
      "ĠB": 1825,
      "éĢ»": 1826,
      "è½¬æį¢": 1827,
      "to": 1828,
      "éĩıçļĦ": 1829,
      "è¯Ĭ": 1830,
      "å¾Ħ": 1831,
      "15": 1832,
      "èĥ½æºĲ": 1833,
      "é¼ĵ": 1834,
      "æķĪæŀľ": 1835,
      "éĢı": 1836,
      "éģµ": 1837,
      "çī¹å®ļçļĦ": 1838,
      "éĢ»è¾ĳ": 1839,
      "ight": 1840,
      "å¹²": 1841,
      "è¡¨ç¤º": 1842,
      "æħ": 1843,
      "éĩıåŃĲ": 1844,
      "è¥": 1845,
      "ç®Ģåįķ": 1846,
      "èģĶç³»": 1847,
      "ç©ºéĹ´": 1848,
      "ç»ĵåĲĪ": 1849,
      "æ±ĩ": 1850,
      "è¥¿": 1851,
      "æŃ¢": 1852,
      "å®¶åºŃ": 1853,
      "\\[": 1854,
      "äº¤æµģ": 1855,
      "å¸ģ": 1856,
      "çļĦäºº": 1857,
      "å¦Ĥæŀľä½ł": 1858,
      "ç»Ħç»ĩ": 1859,
      "ç½ĳç«Ļ": 1860,
      "ä¸»é¢ĺ": 1861,
      "è½½": 1862,
      "ä¸Ģèµ·": 1863,
      "æĻ®": 1864,
      "ç«¯": 1865,
      "å±Ģ": 1866,
      "æľºåĪ¶": 1867,
      "ame": 1868,
      "ä¸²": 1869,
      "è®¿éĹ®": 1870,
      "æĪĳçļĦ": 1871,
      "åŃĺåĤ¨": 1872,
      "æĢİä¹Ī": 1873,
      "æĿ¾": 1874,
      "ure": 1875,
      "åªĴ": 1876,
      "æĺ¯ä¸Ģ": 1877,
      "åĽ½å®¶": 1878,
      "times": 1879,
      "ple": 1880,
      "ĠThe": 1881,
      "çĸ¾": 1882,
      "ç¼º": 1883,
      "ç¾¤": 1884,
      "çĶŁäº§": 1885,
      "æ¡Ĩ": 1886,
      "éĢĲ": 1887,
      "æĸ°éĹ»": 1888,
      "ä½įç½®": 1889,
      "æ·±åħ¥": 1890,
      "for": 1891,
      "ä½ľåĵģ": 1892,
      "åĽ½éĻħ": 1893,
      "åĩºçİ°": 1894,
      "æłĳ": 1895,
      "é¼ĵåĬ±": 1896,
      "è´¢": 1897,
      "åľ¨äºİ": 1898,
      "æĽ´æĸ°": 1899,
      "Ġch": 1900,
      "è·µ": 1901,
      "ä¸ªæĢ§": 1902,
      "ç¾İåħĥ": 1903,
      "ub": 1904,
      "æľĭåıĭ": 1905,
      "éĿĻ": 1906,
      "å½¢æĪĲ": 1907,
      "è®¨è®º": 1908,
      "æī¿": 1909,
      "ä½¿å¾Ĺ": 1910,
      "æ¶Īè´¹": 1911,
      "å®ŀè·µ": 1912,
      "è¿Ļä¸Ģ": 1913,
      "ĠM": 1914,
      "åĶ®": 1915,
      "Ġcom": 1916,
      "åĮĸçļĦ": 1917,
      "å²": 1918,
      "çĶµåŃĲ": 1919,
      "é¢ĨåŁŁçļĦ": 1920,
      "åĭ": 1921,
      "å¼ºè°ĥ": 1922,
      "å®¡": 1923,
      "è¡¨çİ°": 1924,
      "é¥®é£Ł": 1925,
      "å¤ļæł·": 1926,
      "cc": 1927,
      "å®ŀæĹ¶": 1928,
      "çı": 1929,
      "ç¬¦åĲĪ": 1930,
      "åıĪ": 1931,
      "æ´ģ": 1932,
      "å·§": 1933,
      "èµĽ": 1934,
      "ap": 1935,
      "æĸ¯": 1936,
      "çĸ¾çĹħ": 1937,
      "äºĴåĬ¨": 1938,
      "ase": 1939,
      "æ¦Ĥå¿µ": 1940,
      "ener": 1941,
      "åĵªäºĽ": 1942,
      "Ġ7": 1943,
      "æŁ¥è¯¢": 1944,
      "è¾ĵåĩº": 1945,
      "è¿ŀæİ¥": 1946,
      "æĢĿèĢĥ": 1947,
      "æĪĲéķ¿": 1948,
      "åĪĿ": 1949,
      "çļĦéĹ®é¢ĺ": 1950,
      "çģ«": 1951,
      "åªĴä½ĵ": 1952,
      "åĮĹäº¬": 1953,
      "ä¸Ģä¸ĭ": 1954,
      "Ġ10": 1955,
      "ä¸ĢæŃ¥": 1956,
      "åıĤæķ°": 1957,
      "èĽ": 1958,
      "æľºä¼ļ": 1959,
      "able": 1960,
      "å®³": 1961,
      "è´£ä»»": 1962,
      "å·®å¼Ĥ": 1963,
      "åŃ©åŃĲ": 1964,
      "ä¸¥": 1965,
      "æīį": 1966,
      "äº¤éĢļ": 1967,
      "éļľ": 1968,
      "æ±¡": 1969,
      "ange": 1970,
      "æĪĳä»¬åı¯ä»¥": 1971,
      "æĺ¯åľ¨": 1972,
      "os": 1973,
      "ä»·æł¼": 1974,
      "Ġde": 1975,
      "æŃ¤å¤ĸ": 1976,
      "èģĮä¸ļ": 1977,
      "åĳ¢": 1978,
      "Ġsp": 1979,
      "å¾ĹåĪ°": 1980,
      "æĹ¥å¸¸": 1981,
      "è®¸å¤ļ": 1982,
      "èĻ½": 1983,
      "åĵģçīĮ": 1984,
      "æµģç¨ĭ": 1985,
      "æľĢåĲİ": 1986,
      "æ¹": 1987,
      "éķ¿æľŁ": 1988,
      "èµĸ": 1989,
      "ork": 1990,
      "ime": 1991,
      "ĠĠĊĠĠ": 1992,
      "åĽ°": 1993,
      "æĥ¯": 1994,
      "è¯¾": 1995,
      "è¯ĬæĸŃ": 1996,
      "åĲĪçĲĨ": 1997,
      "çĶŁæĢģ": 1998,
      "çł´": 1999,
      "å¤ļç§į": 2000,
      "çļĦä¸Ģ": 2001,
      "è§ĦåĪĴ": 2002,
      "python": 2003,
      "è¯ī": 2004,
      "æŀĹ": 2005,
      "åıĹåĪ°": 2006,
      "åı¯èĥ½çļĦ": 2007,
      "202": 2008,
      "åŃĹç¬¦ä¸²": 2009,
      "Ġ[": 2010,
      "æĪĲåĬŁ": 2011,
      "ç«ŀ": 2012,
      "ä»ĸä»¬çļĦ": 2013,
      "åĽĽ": 2014,
      "ä½ı": 2015,
      "act": 2016,
      "çŃĶæ¡Ī": 2017,
      "è¿Ĳè¡Į": 2018,
      "æ³¢": 2019,
      "æĴŃ": 2020,
      "è´Ńä¹°": 2021,
      "åĸľæ¬¢": 2022,
      "çļĦä¿¡æģ¯": 2023,
      "åĨ²": 2024,
      "æŀĦå»º": 2025,
      "ä¾Ŀèµĸ": 2026,
      "è¶ĭ": 2027,
      "ä¹łæĥ¯": 2028,
      "åĪĩ": 2029,
      "ave": 2030,
      "per": 2031,
      "æĳĦ": 2032,
      "èİ·å¾Ĺ": 2033,
      "å°Ĭ": 2034,
      "çĹĩ": 2035,
      "çĿ¡": 2036,
      "çº¢": 2037,
      "æ²¹": 2038,
      "åŃ£": 2039,
      "åı¥åŃĲ": 2040,
      "åı¯æĮģç»Ń": 2041,
      "äºĭä»¶": 2042,
      "ĠĠĊ": 2043,
      "æ¸©åº¦": 2044,
      "ç¤ºä¾ĭ": 2045,
      "èĻ½çĦ¶": 2046,
      "æĶ¶éĽĨ": 2047,
      "åĲ¸å¼ķ": 2048,
      "ä¸Ģæ¬¡": 2049,
      "ä¸Ģç¯ĩ": 2050,
      "èĢħçļĦ": 2051,
      "ä»ĺ": 2052,
      "çİ°å®ŀ": 2053,
      "å®ļçļĦ": 2054,
      "å¥ĩ": 2055,
      "è¯Ĺ": 2056,
      "å¯Ł": 2057,
      "æįŁ": 2058,
      "åħ¸": 2059,
      "éĿ¢å¯¹": 2060,
      "èĤī": 2061,
      "ç¤¾åĮº": 2062,
      "Ġal": 2063,
      "å¦": 2064,
      "ĠD": 2065,
      "åĦ": 2066,
      "éĩĩåıĸ": 2067,
      "æĤ£": 2068,
      "è§ĦåĪĻ": 2069,
      "Ġwh": 2070,
      "Ġ8": 2071,
      "èĲ½": 2072,
      "ĠçļĦ": 2073,
      "çī¹å¾ģ": 2074,
      "ä¸Ĭè¿°": 2075,
      "æĹ¢": 2076,
      "éĴŁ": 2077,
      "è¶ĭåĬ¿": 2078,
      "éªĮè¯ģ": 2079,
      "æ¡Ĩæŀ¶": 2080,
      "å®ĺ": 2081,
      "è®¤çŁ¥": 2082,
      "æķ°åŃ¦": 2083,
      "çĲĨè®º": 2084,
      "é£Łçī©": 2085,
      "åħ¶ä¸Ń": 2086,
      "é£İæł¼": 2087,
      "ather": 2088,
      "æ·»": 2089,
      "urn": 2090,
      "æķ°éĩı": 2091,
      "ç»¿": 2092,
      "èĻļ": 2093,
      "ck": 2094,
      "æ±¡æŁĵ": 2095,
      "ence": 2096,
      "åľ¨çº¿": 2097,
      "ction": 2098,
      "time": 2099,
      "Ġ#": 2100,
      "ä»į": 2101,
      "è¡ĮåĬ¨": 2102,
      "çļĦæķ°æį®": 2103,
      "çĦ¶èĢĮ": 2104,
      "æľºåĻ¨åŃ¦ä¹ł": 2105,
      "Ġif": 2106,
      "èĦĳ": 2107,
      "pt": 2108,
      "åľ°åĮº": 2109,
      "ä»¤": 2110,
      "æľĢç»Ī": 2111,
      "ata": 2112,
      "åĪĨç±»": 2113,
      "ä¸´": 2114,
      "åºĶå¯¹": 2115,
      "èĮĥåĽ´": 2116,
      "âĢĿï¼Į": 2117,
      "éĻĲåĪ¶": 2118,
      "ç»ıéªĮ": 2119,
      "åĳĺå·¥": 2120,
      "è¿Ķ": 2121,
      "ĠU": 2122,
      "è¿ĽæŃ¥": 2123,
      "ring": 2124,
      "ĠW": 2125,
      "å¸¸è§ģ": 2126,
      "åį°": 2127,
      "éĩįè¦ģçļĦ": 2128,
      "æ¸ħæĻ": 2129,
      "åī§": 2130,
      "å°Ķ": 2131,
      "æŃĮ": 2132,
      "Ġret": 2133,
      "è®¡ç®Ĺæľº": 2134,
      "è¿Ļåı¯èĥ½": 2135,
      "ount": 2136,
      "éļıæľº": 2137,
      "çļĦæĸĩç«ł": 2138,
      "çļĦåıĳå±ķ": 2139,
      "è¡Ģ": 2140,
      "å°¤": 2141,
      "åĪ¶ä½ľ": 2142,
      "Ġthis": 2143,
      "èĽĭ": 2144,
      "ant": 2145,
      "åİŁåĽł": 2146,
      "æĸ¹åĲĳ": 2147,
      "12": 2148,
      "\"}": 2149,
      "ç¼ĵ": 2150,
      "å±ķç¤º": 2151,
      "éĹ®é¢ĺçļĦ": 2152,
      "åģĩè®¾": 2153,
      "è®¤ä¸º": 2154,
      "ang": 2155,
      "ode": 2156,
      "æĪĲåĳĺ": 2157,
      "æĽ¿": 2158,
      "æľĢè¿ĳæľīæ²¡æľī": 2159,
      "eed": 2160,
      "çļĦæĹ¶éĹ´": 2161,
      "åĴ¨": 2162,
      "å®¤": 2163,
      "Ġres": 2164,
      "åĲĥ": 2165,
      "åĴ¨è¯¢": 2166,
      "Ġ100": 2167,
      "é¾": 2168,
      "çĨ": 2169,
      "çİ©": 2170,
      "åĬ¨æĢģ": 2171,
      "og": 2172,
      "æĲľ": 2173,
      "é£ŀ": 2174,
      "å±±": 2175,
      "åıĳçĶŁ": 2176,
      "åħħæ»¡": 2177,
      "åĽ¾åĥı": 2178,
      "ä¹ĭä¸Ģ": 2179,
      "è¾ħ": 2180,
      "éĥ½æĺ¯": 2181,
      "åĦ¿": 2182,
      "ç³ĸ": 2183,
      "åĬ¨çī©": 2184,
      "end": 2185,
      "éĿ¢çļĦ": 2186,
      "è§¦": 2187,
      "è¿ĶåĽŀ": 2188,
      "ĠL": 2189,
      "30": 2190,
      "å®Ŀ": 2191,
      "é¡¾": 2192,
      "æķ£": 2193,
      "åľ°çĲĥ": 2194,
      "ä¸Ģæ®µ": 2195,
      "æĦıåĳ³": 2196,
      "æİĴåºı": 2197,
      "æł¸å¿ĥ": 2198,
      "éĻįä½İ": 2199,
      "ä»¥ä¸ĭåĩłä¸ª": 2200,
      "ere": 2201,
      "__": 2202,
      "å½Ĵ": 2203,
      "åº¦åĴĮ": 2204,
      "Ġreturn": 2205,
      "ä¹ĺ": 2206,
      "Ġle": 2207,
      "Ġprov": 2208,
      "çī©çĲĨ": 2209,
      "æīĭæľº": 2210,
      "æĮĩå¯¼": 2211,
      "æĲľç´¢": 2212,
      "å±ħ": 2213,
      "form": 2214,
      "åįĹ": 2215,
      "æĹ©": 2216,
      "å¿Ĩ": 2217,
      "50": 2218,
      "æĺ¯ä»Ģä¹Ī": 2219,
      "Ġli": 2220,
      "åį¡": 2221,
      "è§£åĨ³æĸ¹æ¡Ī": 2222,
      "è®¾å®ļ": 2223,
      "åįİ": 2224,
      "æ¯ıå¤©": 2225,
      "æıĲåıĸ": 2226,
      "æĿ¿": 2227,
      "éĩĳèŀį": 2228,
      "æ¸ħæĻ°": 2229,
      "åľŁ": 2230,
      "å½¢å¼ı": 2231,
      "æķ°æį®çļĦ": 2232,
      "è¾¹çķĮ": 2233,
      "ä»ĭ": 2234,
      "å¡ĳ": 2235,
      "æĦıåĳ³çĿĢ": 2236,
      "æĿ¥è¯´": 2237,
      "æī©": 2238,
      "å°ıæĹ¶": 2239,
      "ä¸ľ": 2240,
      "è¿ĺæĺ¯": 2241,
      "ag": 2242,
      "æķ°ç»Ħ": 2243,
      "é¡º": 2244,
      "æĶ¹è¿Ľ": 2245,
      "od": 2246,
      "çĶŁåĳ½": 2247,
      "å¿Ĺ": 2248,
      "å£«": 2249,
      "èµ°": 2250,
      "é²": 2251,
      "å¿ħè¦ģ": 2252,
      "é¡µ": 2253,
      "å°Ħ": 2254,
      "æ¡£": 2255,
      "æľīä»Ģä¹Ī": 2256,
      "å¤ľ": 2257,
      "):": 2258,
      "å°Ĭéĩį": 2259,
      "æĭī": 2260,
      "å¯»æī¾": 2261,
      "é¢ľ": 2262,
      "print": 2263,
      "ĠY": 2264,
      "æ¤įçī©": 2265,
      "æĢ¥": 2266,
      "è®²": 2267,
      "ç«ŀäºī": 2268,
      "é¦Ļ": 2269,
      "éĢıæĺİ": 2270,
      "è¿ĺèĥ½": 2271,
      "Ġ9": 2272,
      "ill": 2273,
      "çľł": 2274,
      "æĬĢå·§": 2275,
      "Ġfrom": 2276,
      "ä½ĵçļĦ": 2277,
      "ice": 2278,
      "æ°ĶåĢĻ": 2279,
      "art": 2280,
      "éĺ¶": 2281,
      "å¯»æ±Ĥ": 2282,
      "è·Ŀ": 2283,
      "åĪ¤æĸŃ": 2284,
      "çļ®": 2285,
      "Ġar": 2286,
      "Ġun": 2287,
      "æĭħ": 2288,
      "äºĨä¸Ģä¸ª": 2289,
      "æĭ¥": 2290,
      "éĢĤçļĦ": 2291,
      "Ġ20": 2292,
      "åĽŃ": 2293,
      "åĨ³å®ļ": 2294,
      "çģµæ´»": 2295,
      "Ġme": 2296,
      "æ·»åĬł": 2297,
      "åıįåºĶ": 2298,
      "è¿Ľä¸ĢæŃ¥": 2299,
      "éĢĴ": 2300,
      "è¿½æ±Ĥ": 2301,
      "è´§": 2302,
      "æ¯į": 2303,
      "æ°´å¹³": 2304,
      "we": 2305,
      "ies": 2306,
      "Ġx": 2307,
      "åģļåĩº": 2308,
      "ĠR": 2309,
      "æĢĿç»´": 2310,
      "ç¦ı": 2311,
      "èģĬ": 2312,
      "æĶ¹åĸĦ": 2313,
      "What": 2314,
      "å¥³": 2315,
      "åıĮ": 2316,
      "ine": 2317,
      "äº¤æĺĵ": 2318,
      "åĨľ": 2319,
      "ä¸įä¼ļ": 2320,
      "åĲİçļĦ": 2321,
      "æŃ£åľ¨": 2322,
      "ĨĴ": 2323,
      "çĮ«": 2324,
      "åı¦": 2325,
      "ä¸ĵæ³¨": 2326,
      "ä¼¤": 2327,
      "æĽ´å¤ļçļĦ": 2328,
      "çĬ¶åĨµ": 2329,
      "ç¡®å®ŀ": 2330,
      "åķ¡": 2331,
      "éĤ®": 2332,
      "ä»¥ç¡®ä¿Ŀ": 2333,
      "è¯¾ç¨ĭ": 2334,
      "é¢ľèī²": 2335,
      "é©¬": 2336,
      "\\]": 2337,
      "å°¤åħ¶": 2338,
      "å¾ªçİ¯": 2339,
      "äººç±»çļĦ": 2340,
      "æľīè¶£": 2341,
      "åĵ²": 2342,
      "çŁ³": 2343,
      "æĹħè¡Į": 2344,
      "å¤įæĿĤçļĦ": 2345,
      "çķĻ": 2346,
      "æİ¢è®¨": 2347,
      "ib": 2348,
      "èį¯çī©": 2349,
      "æļĸ": 2350,
      "äººæ°ĳ": 2351,
      "æĦŁåĪ°": 2352,
      "åĿļ": 2353,
      "åı¯ä»¥ä½¿çĶ¨": 2354,
      "Ġse": 2355,
      "åĴĸ": 2356,
      "éģĹ": 2357,
      "åı¯ä»¥æıĲä¾Ľ": 2358,
      "à¸": 2359,
      "åºľ": 2360,
      "Ġhave": 2361,
      "åĬª": 2362,
      "å¸®åĬ©ä½ł": 2363,
      "çĭ¬çī¹çļĦ": 2364,
      "å®Ī": 2365,
      "æķı": 2366,
      "çĶ±äºİ": 2367,
      "ä¼ĳ": 2368,
      "éĵ¶": 2369,
      "çī©è´¨": 2370,
      "åĪĨéħį": 2371,
      "Ġtime": 2372,
      "Ġ{": 2373,
      "çľ¼": 2374,
      "å½©": 2375,
      "ä¹Łæĺ¯": 2376,
      "ç¤¾äº¤åªĴä½ĵ": 2377,
      "éĶĢåĶ®": 2378,
      "åĴĸåķ¡": 2379,
      "éĢģ": 2380,
      "æİ¥åıĹ": 2381,
      "åĬªåĬĽ": 2382,
      "æĺł": 2383,
      "åħģ": 2384,
      "åł": 2385,
      "cri": 2386,
      "é©¶": 2387,
      "çĦ¦": 2388,
      "ï¼ī**ï¼ļ": 2389,
      "èī¯å¥½çļĦ": 2390,
      "ç£": 2391,
      "éĽ¨": 2392,
      "$$": 2393,
      "put": 2394,
      "èģļ": 2395,
      "æĦ¿": 2396,
      "è°¢": 2397,
      "çĮ®": 2398,
      "å®ĩ": 2399,
      "æ±½": 2400,
      "ould": 2401,
      "ç»ıåİĨ": 2402,
      "åĪĨéĴŁ": 2403,
      "åħģè®¸": 2404,
      "æ¸Ĳ": 2405,
      "one": 2406,
      "æĺ¾èĳĹ": 2407,
      "âĢĿãĢĤ": 2408,
      "imp": 2409,
      "Ġqu": 2410,
      "åŁ¹è®Ń": 2411,
      "çĽĸ": 2412,
      "è¡¥": 2413,
      "Ġweather": 2414,
      "ile": 2415,
      "ach": 2416,
      "æ½ľåľ¨": 2417,
      "åĬłåħ¥": 2418,
      "åĳ¼": 2419,
      "èĩ³åħ³": 2420,
      "æĶ¿åºľ": 2421,
      "æĪĳä¼ļ": 2422,
      "iz": 2423,
      "éħĴ": 2424,
      "äºļ": 2425,
      "çĭĹ": 2426,
      "çĵ": 2427,
      "çĿ¡çľł": 2428,
      "é»ĳ": 2429,
      "åĨ·": 2430,
      "nd": 2431,
      "åĨħéĥ¨": 2432,
      "éģĵå¾·": 2433,
      "åĵ²åŃ¦": 2434,
      "åŃ¦ä¹łåĴĮ": 2435,
      "èģĶç½ĳ": 2436,
      "è¾ħåĬ©": 2437,
      "è·¯å¾Ħ": 2438,
      "éĥ½æľī": 2439,
      "åħ¬å¹³": 2440,
      "äººåĳĺ": 2441,
      "çļĦåħ³éĶ®": 2442,
      "åĲ¯": 2443,
      "60": 2444,
      "è¿ĩåº¦": 2445,
      "æĻļ": 2446,
      "ost": 2447,
      "low": 2448,
      "æł¡": 2449,
      "åĨĻä¸Ģç¯ĩ": 2450,
      "æĦŁè§ī": 2451,
      "èĹ": 2452,
      "ç¥¨": 2453,
      "åķĨåĵģ": 2454,
      "Ġbet": 2455,
      "ated": 2456,
      "èĪª": 2457,
      "Ġwor": 2458,
      "æıĲåĩº": 2459,
      "éĴĪ": 2460,
      "æľºæŀĦ": 2461,
      "ä¸ªæĢ§åĮĸ": 2462,
      "å¥ĸ": 2463,
      "è¿ĻæľīåĬ©äºİ": 2464,
      "are": 2465,
      "åºĹ": 2466,
      "result": 2467,
      "éģµå¾ª": 2468,
      "ç³»ç»ŁçļĦ": 2469,
      "ç»§": 2470,
      "ci": 2471,
      "è¿Ļæĺ¯": 2472,
      "æ³ķè§Ħ": 2473,
      "æĬ¥åĳĬ": 2474,
      "æĸĩæ¡£": 2475,
      "æģ¢": 2476,
      "ä»ĸçļĦ": 2477,
      "çģ¯": 2478,
      "åĳĬè¯ī": 2479,
      "è§Ĩè§ī": 2480,
      "åľ¨åĮ»çĸĹ": 2481,
      "è¿Ļæ®µ": 2482,
      "ava": 2483,
      "æĿİ": 2484,
      "æģ¢å¤į": 2485,
      "andom": 2486,
      "è§Ĩé¢ĳ": 2487,
      "Ġsu": 2488,
      "å®Įåħ¨": 2489,
      "ĊĠ": 2490,
      "åŁ¹åħ»": 2491,
      "ï¼īãĢģ": 2492,
      "èĻļæĭŁ": 2493,
      "æĢ»ä¹ĭ": 2494,
      "å®Ļ": 2495,
      "å¹¶ä¸Ķ": 2496,
      "èĢĮéĿŀ": 2497,
      "æķ°æį®åºĵ": 2498,
      "æ·±åĪ»": 2499,
      "èĩªæĪĳæĦıè¯Ĩ": 2500,
      "ç¡¬": 2501,
      "äºĶ": 2502,
      "è´¢åĬ¡": 2503,
      "å®ĩå®Ļ": 2504,
      "éĩĩçĶ¨": 2505,
      "ï¼ļ**": 2506,
      "Â·": 2507,
      "é©¾": 2508,
      "è®°å¿Ĩ": 2509,
      "Ġnew": 2510,
      "Ġdo": 2511,
      "ç¥ŀç»ı": 2512,
      "cl": 2513,
      "æĹ¨": 2514,
      "ç©ºæ°Ķ": 2515,
      "èĲ¥åħ»": 2516,
      "æ¯Ķè¾ĥ": 2517,
      "æľªæĿ¥çļĦ": 2518,
      "çĩ": 2519,
      "å½ĵçĦ¶": 2520,
      "äººå·¥æĻºèĥ½æĬĢæľ¯": 2521,
      "æĿ¥æºĲ": 2522,
      "Ġlike": 2523,
      "ä½³": 2524,
      "ä½Ĩä¸į": 2525,
      "å®ŀéªĮ": 2526,
      "åı¶": 2527,
      "ä¸ĭçļĦ": 2528,
      "ich": 2529,
      "è¶³å¤Ł": 2530,
      "åĽº": 2531,
      "äºĨä¸Ģ": 2532,
      "æĹ¥æľŁ": 2533,
      "æľīåħ³": 2534,
      "ect": 2535,
      "éĩįå¤į": 2536,
      "Ġprovide": 2537,
      "åĲĪéĢĤçļĦ": 2538,
      "ĠJ": 2539,
      "ç§ĺ": 2540,
      "æĶ¯ä»ĺ": 2541,
      "çŁ¥éģĵ": 2542,
      "åıĸåĨ³": 2543,
      "åıĸåĨ³äºİ": 2544,
      "ĠG": 2545,
      "åĲĮæĹ¶ä¹Ł": 2546,
      "æľīæķĪåľ°": 2547,
      "æ£®": 2548,
      "ition": 2549,
      "åĮ»åŃ¦": 2550,
      "Ġì": 2551,
      "å±ķçİ°": 2552,
      "æŁ¥çľĭ": 2553,
      "æĹłè®º": 2554,
      "çļĦåľ°": 2555,
      "ä½ĵçİ°": 2556,
      "ä¸īä¸ª": 2557,
      "ç¹": 2558,
      "ç®ĢåįķçļĦ": 2559,
      "åľ¨è¿Ļä¸ª": 2560,
      "Ġnot": 2561,
      "ass": 2562,
      "çŃ¾": 2563,
      "up": 2564,
      "ç³»åĪĹ": 2565,
      "éĻĲäºİ": 2566,
      "ive": 2567,
      "ç¢³": 2568,
      "all": 2569,
      "ansl": 2570,
      "ccess": 2571,
      "ween": 2572,
      "æĮīçħ§": 2573,
      "éķ¿åº¦": 2574,
      "æħ¢": 2575,
      "çľŁå®ŀ": 2576,
      "æľīæķĪçļĦ": 2577,
      "èĵ": 2578,
      "è½¬æį¢ä¸º": 2579,
      "çĽ¸åħ³çļĦ": 2580,
      "his": 2581,
      "ç©¿": 2582,
      "çĶ¨çļĦ": 2583,
      "æĺ¾ç¤º": 2584,
      "åįģ": 2585,
      "æľºåĻ¨äºº": 2586,
      "æĦŁåıĹ": 2587,
      "unction": 2588,
      "25": 2589,
      "çĽĺ": 2590,
      "èĩªèº«": 2591,
      "èµ·æĿ¥": 2592,
      "å®ŀæĸ½": 2593,
      "é«ĺçļĦ": 2594,
      "Ġbetween": 2595,
      "ä¸įåı¯": 2596,
      "è´¦": 2597,
      "æĪĳä»¬éľĢè¦ģ": 2598,
      "æķĪçİĩåĴĮ": 2599,
      "æĽ²": 2600,
      "cul": 2601,
      "âĢĶ": 2602,
      "ä¸ļåĬ¡": 2603,
      "ç§»åĬ¨": 2604,
      "å¢ŀéķ¿": 2605,
      "æ±½è½¦": 2606,
      "å¨ģ": 2607,
      "åĬĽåĴĮ": 2608,
      "æĹ¨åľ¨": 2609,
      "Ġab": 2610,
      "so": 2611,
      "ä¸ªäººçļĦ": 2612,
      "å¤§å°ı": 2613,
      "çļĦåºĶçĶ¨": 2614,
      "èĢĲ": 2615,
      "ä»£è¡¨": 2616,
      "Ġat": 2617,
      "ä»·åĢ¼è§Ĥ": 2618,
      "ç±į": 2619,
      "åı¯èĥ½å¯¼èĩ´": 2620,
      "è¯·éĹ®": 2621,
      "ä½Ĩæĺ¯": 2622,
      "æ¶Īè´¹èĢħ": 2623,
      "è¯´æĺİ": 2624,
      "è·Ŀç¦»": 2625,
      "å®īè£ħ": 2626,
      "èĪĴ": 2627,
      "ä¼´": 2628,
      "ç¹ģ": 2629,
      "èĩªçĶ±": 2630,
      "èŃ": 2631,
      "æ±ĩçİĩ": 2632,
      "æĢİä¹Īæł·": 2633,
      "ä¸ĭéĿ¢": 2634,
      "æĿŁ": 2635,
      "èĭ±æĸĩ": 2636,
      "è¿ĻéĩĮ": 2637,
      "çĸ«": 2638,
      "åħ±äº«": 2639,
      "åĨ²çªģ": 2640,
      "éŃ": 2641,
      "æ¹¿": 2642,
      "äº²": 2643,
      "åĬĽéĩı": 2644,
      "è§ĤçĤ¹": 2645,
      "ç¨İ": 2646,
      "ç»¼åĲĪ": 2647,
      "åĲįç§°": 2648,
      "æīĢä»¥": 2649,
      "éĢĶ": 2650,
      "Ġcl": 2651,
      "æł¼å¼ı": 2652,
      "æ¯Ĵ": 2653,
      "Ġyour": 2654,
      "çľĭåĪ°": 2655,
      "éĺ¶æ®µ": 2656,
      "ä¸Ńå¿ĥ": 2657,
      "åģľ": 2658,
      "ãģ®": 2659,
      "SD": 2660,
      "å¾Ģå¾Ģ": 2661,
      "é©¾é©¶": 2662,
      "çĽĳæİ§": 2663,
      "ä»¥ä¸Ĭ": 2664,
      "æĭ¥æľī": 2665,
      "åıĬæĹ¶": 2666,
      "ä¾ĭåŃĲ": 2667,
      "éĩįæĸ°": 2668,
      "Ġpl": 2669,
      "éĿł": 2670,
      "æ°§": 2671,
      "æĬĬ": 2672,
      "ä»ĸäºº": 2673,
      "æľīæīĢ": 2674,
      "æ´ĭ": 2675,
      "é±": 2676,
      "ç®±": 2677,
      "ä¿®æĶ¹": 2678,
      "å¦ĤæŀľæĤ¨": 2679,
      "é»Ħ": 2680,
      "Ġ*": 2681,
      "cy": 2682,
      "å¯¹è±¡": 2683,
      "å»¶": 2684,
      "èĮ¶": 2685,
      "èĩªåĬ¨åĮĸ": 2686,
      "éĤ®ä»¶": 2687,
      "com": 2688,
      "åıĺå¾Ĺ": 2689,
      "èĢĹ": 2690,
      "çļĦäºĭ": 2691,
      "Ġresult": 2692,
      "ific": 2693,
      "é±¼": 2694,
      "',": 2695,
      "ak": 2696,
      "å·´": 2697,
      "æ¶īåıĬåĪ°": 2698,
      "éĢĤå½ĵ": 2699,
      "ä½łä»Ĭå¤©": 2700,
      "å¤ªéĺ³": 2701,
      "cript": 2702,
      "ä¸°å¯ĮçļĦ": 2703,
      "è§Ĵåº¦": 2704,
      "çŃĳ": 2705,
      "æĬĹ": 2706,
      "Ġ<": 2707,
      "000": 2708,
      "åĬŀ": 2709,
      "ps": 2710,
      "ä¸»è§Ĥ": 2711,
      "åıįæĢĿ": 2712,
      "åŃĺåľ¨çļĦ": 2713,
      "å¦Ĥä¸ĭ": 2714,
      "åįıä½ľ": 2715,
      "åķĨä¸ļ": 2716,
      "ç»ĨèĬĤ": 2717,
      "èĩ³åħ³éĩįè¦ģ": 2718,
      "çŃīæĸ¹éĿ¢": 2719,
      "hn": 2720,
      "æĮĩçļĦæĺ¯": 2721,
      "å¾Īå¤ļ": 2722,
      "åĮºåŁŁ": 2723,
      "ç¼ĸåĨĻ": 2724,
      "æ¨¡æĭŁ": 2725,
      "æķ´ä½ĵ": 2726,
      "åħ¬ä¼Ĺ": 2727,
      "èĹı": 2728,
      "ud": 2729,
      "çİ°è±¡": 2730,
      "æıĲä¾ĽæĽ´": 2731,
      "ä¼ļè®®": 2732,
      "çĳ": 2733,
      "é²ľ": 2734,
      "Ġneed": 2735,
      "éĢīé¡¹": 2736,
      "ç²¾ç¥ŀ": 2737,
      "du": 2738,
      "åĬĽçļĦ": 2739,
      "Ġman": 2740,
      "éĿ¢ä¸´": 2741,
      "ä¸ªä½ĵ": 2742,
      "åľ¨æŁĲäºĽ": 2743,
      "ç¤¼": 2744,
      "Ġhas": 2745,
      "å®ĥä»¬çļĦ": 2746,
      "å¥¶": 2747,
      "å¹³åĿĩ": 2748,
      "ĥåľ": 2749,
      "æ¢¦": 2750,
      "åĢ¾": 2751,
      "åŀĥåľ": 2752,
      "åŀĥåľ¾": 2753,
      "ä¸½": 2754,
      "æĬ½": 2755,
      "åºķ": 2756,
      "æ²»çĲĨ": 2757,
      "æµª": 2758,
      "èĭ¥": 2759,
      "æħ§": 2760,
      "åĪĨå¸ĥ": 2761,
      "ä¸Ńæĸĩ": 2762,
      "éĿ©": 2763,
      "alue": 2764,
      "(\"": 2765,
      "å»ºçŃĳ": 2766,
      "åĨ°": 2767,
      "èĦļ": 2768,
      "Ġso": 2769,
      "ä¸įè¿ĩ": 2770,
      "ä¸Ģèĩ´": 2771,
      "ary": 2772,
      "åĿı": 2773,
      "çŃīäºİ": 2774,
      "çļĦæĸ¹å¼ı": 2775,
      "å¤§éĩı": 2776,
      "con": 2777,
      "åıĺéĩı": 2778,
      "æĿ¥è¶Ĭ": 2779,
      "å®īåħ¨æĢ§": 2780,
      "æĹ¶éĹ´çļĦ": 2781,
      "Ġ/": 2782,
      "è§Ī": 2783,
      "Â°": 2784,
      "ä½Ļ": 2785,
      "æĻºæħ§": 2786,
      "åħ¬åħ±": 2787,
      "è¶ĬæĿ¥è¶Ĭ": 2788,
      "ĠÃ": 2789,
      "éģį": 2790,
      "è§Ĥå¯Ł": 2791,
      "èĴ": 2792,
      "Ġad": 2793,
      "éĢĲæ¸Ĳ": 2794,
      "åº¦çļĦ": 2795,
      "ĠO": 2796,
      "ally": 2797,
      "æīįèĥ½": 2798,
      "æķ°æį®åĪĨæŀĲ": 2799,
      "åºĶçļĦ": 2800,
      "è¸": 2801,
      "æ··": 2802,
      "ĠNew": 2803,
      "å¥ı": 2804,
      "ĠYork": 2805,
      "è¾¾åĪ°": 2806,
      "èĲ¥éĶĢ": 2807,
      "ç»į": 2808,
      "èĢĮä¸įæĺ¯": 2809,
      "æ´Ĺ": 2810,
      "å®ĺæĸ¹": 2811,
      "æ¿Ģåıĳ": 2812,
      "æķ´ä¸ª": 2813,
      "Ġhow": 2814,
      "Ġspec": 2815,
      "åįķè¯į": 2816,
      "ç»§ç»Ń": 2817,
      "äº®": 2818,
      "ä»ĭç»į": 2819,
      "åĬłå¼º": 2820,
      "å¼ķåıĳ": 2821,
      "å¤ļæł·æĢ§": 2822,
      "å®īæİĴ": 2823,
      "èĤ¡": 2824,
      "ç»ĥä¹ł": 2825,
      "è¿Ļæł·çļĦ": 2826,
      "çīĪæľ¬": 2827,
      "æ¯ĶèµĽ": 2828,
      "æĪĳæĥ³": 2829,
      "æī¹": 2830,
      "ack": 2831,
      "éħįç½®": 2832,
      "æ´ŀ": 2833,
      "åĬ³": 2834,
      "æ¶²": 2835,
      "é¡»": 2836,
      "ç»Ļåĩº": 2837,
      "è¾Ĩ": 2838,
      "æŃ£ç¡®çļĦ": 2839,
      "tal": 2840,
      "æľĢå¤§": 2841,
      "éĻ¢": 2842,
      "ax": 2843,
      "æıĲåĪ°": 2844,
      "ðŁ": 2845,
      "æ£Ģæµĭ": 2846,
      "èŀįåĲĪ": 2847,
      "è´¹çĶ¨": 2848,
      "ox": 2849,
      "Ġsh": 2850,
      "Ġfind": 2851,
      "åĽŀçŃĶ": 2852,
      "UR": 2853,
      "ä¸įèĥ½": 2854,
      "æĸĩåŃĹ": 2855,
      "ä¼ĺåĬ¿": 2856,
      "ä¼łæĴŃ": 2857,
      "æĤ£èĢħ": 2858,
      "def": 2859,
      "éĺ¿": 2860,
      "çļĦä½¿çĶ¨": 2861,
      "èĤ¤": 2862,
      "**:": 2863,
      "çļĦçĶŁæ´»": 2864,
      "ä»¥ä¾¿": 2865,
      "Ġwhich": 2866,
      "æľĢæĸ°": 2867,
      "ä½łå¦Ĥä½ķ": 2868,
      "ä¼ĺåħĪ": 2869,
      "Ġdata": 2870,
      "Ġj": 2871,
      "çľŁæŃ£": 2872,
      "åİŁåĪĻ": 2873,
      "Ġen": 2874,
      "è§ĦèĮĥ": 2875,
      "æĢ»ç»ĵ": 2876,
      "å·¥ç¨ĭ": 2877,
      "åº§": 2878,
      "ext": 2879,
      "åĵįåºĶ": 2880,
      "ç»ĺ": 2881,
      "ance": 2882,
      "éħ¸": 2883,
      "åı¯ä»¥åľ¨": 2884,
      "æĹ¶åĢĻ": 2885,
      "äººæ°ĳå¸ģ": 2886,
      "ä¸¾": 2887,
      "çī¹çĤ¹": 2888,
      "éľ²": 2889,
      "çĲĨè§£åĴĮ": 2890,
      "æķ´æķ°": 2891,
      "å¼ĢæĶ¾": 2892,
      "åĽ°éļ¾": 2893,
      "è´¡": 2894,
      "çĨŁ": 2895,
      "è®¢": 2896,
      "å¸¸è§ģçļĦ": 2897,
      "ite": 2898,
      "æ·±åº¦åŃ¦ä¹ł": 2899,
      "èįī": 2900,
      "æľįåĬ¡åĻ¨": 2901,
      "ft": 2902,
      "æĸĩåŃ¦": 2903,
      "ä½Ĩä¸įéĻĲäºİ": 2904,
      "åĴĮè°": 2905,
      "åĳĬè¯īæĪĳ": 2906,
      "ç²¾åĩĨ": 2907,
      "äº«åıĹ": 2908,
      "çĶ³": 2909,
      "der": 2910,
      "éĢłæĪĲ": 2911,
      "èĶ": 2912,
      "èŃ¦": 2913,
      "åĮħæĭ¬ä½Ĩä¸įéĻĲäºİ": 2914,
      "è´¡çĮ®": 2915,
      "Ġ12": 2916,
      "å¿ħè¦ģçļĦ": 2917,
      "éĵ¶è¡Į": 2918,
      "ç»¿èī²": 2919,
      "å¿Ļ": 2920,
      "æĶ¾æĿ¾": 2921,
      "å¯Ĩçłģ": 2922,
      "æĺ¥": 2923,
      "èĨ": 2924,
      "date": 2925,
      "PI": 2926,
      "çĭ¬ç«ĭ": 2927,
      "æĬĺ": 2928,
      "å¿ħé¡»": 2929,
      "èī¾": 2930,
      "ä½łæľīæ²¡æľī": 2931,
      "æ¸ħæ´ģ": 2932,
      "çĽ®åīį": 2933,
      "å¼Ĥå¸¸": 2934,
      "ish": 2935,
      "ç¼©": 2936,
      "çİĭ": 2937,
      "åĪĽå»ºä¸Ģä¸ª": 2938,
      "éĨĴ": 2939,
      "çĹĽ": 2940,
      "19": 2941,
      "Ġapp": 2942,
      "èº«ä»½": 2943,
      "è¯·æ±Ĥ": 2944,
      "QL": 2945,
      "Ġmore": 2946,
      "lease": 2947,
      "import": 2948,
      "æīĢè¿°": 2949,
      "ç»¼ä¸Ĭ": 2950,
      "åīĤ": 2951,
      "alcul": 2952,
      "æĦŁçŁ¥": 2953,
      "å®¹æĺĵ": 2954,
      "ä¹¦ç±į": 2955,
      "Ġrandom": 2956,
      "é¸¡": 2957,
      "åį«": 2958,
      "çĽ¸äºĴ": 2959,
      "çĽ¸å¯¹": 2960,
      "ren": 2961,
      "ä¼ĳæģ¯": 2962,
      "é¢Ŀå¤ĸ": 2963,
      "gr": 2964,
      "ç»ĦåĲĪ": 2965,
      "Ġtotal": 2966,
      "ll": 2967,
      "çºª": 2968,
      "è¯ļ": 2969,
      "é¾Ħ": 2970,
      "çļĦå¤©æ°Ķ": 2971,
      "åĮ¹": 2972,
      "ĠÐ": 2973,
      "çļĦéľĢæ±Ĥ": 2974,
      "Ġgener": 2975,
      "heck": 2976,
      "èľ": 2977,
      "ä½łæľĢè¿ĳæľīæ²¡æľī": 2978,
      "éĥ½èĥ½": 2979,
      "å»ºè®¾": 2980,
      "åıįæĺł": 2981,
      "çīĽ": 2982,
      "ear": 2983,
      "ç»¼ä¸ĬæīĢè¿°": 2984,
      "Ġper": 2985,
      "åĢĴ": 2986,
      "åħ¨éĿ¢": 2987,
      "å·¨": 2988,
      "çī¹æĢ§": 2989,
      "åĳ¼åĲ¸": 2990,
      "Ġ15": 2991,
      "å¦Ĥä½ķåľ¨": 2992,
      "yp": 2993,
      "è¿Ļä¸įä»ħ": 2994,
      "ates": 2995,
      "è¡£": 2996,
      "entence": 2997,
      "æĪĳæĹłæ³ķ": 2998,
      "ook": 2999,
      "éĺ²æŃ¢": 3000,
      "æłĩé¢ĺ": 3001,
      "æľĢè¿ĳåľ¨": 3002,
      "æ°ĶåĢĻåıĺåĮĸ": 3003,
      "ä¾ĽåºĶ": 3004,
      "çĽ¸åĲĮ": 3005,
      "ç¬Ķ": 3006,
      "æ£®æŀĹ": 3007,
      "æĪĳåı¯ä»¥": 3008,
      "å¤ı": 3009,
      "In": 3010,
      "ç¨ĭåº¦": 3011,
      "è¿ĩåİ»": 3012,
      "æī©å±ķ": 3013,
      "å®Įæķ´": 3014,
      "tic": 3015,
      "arr": 3016,
      "åıĳå¸ĥ": 3017,
      "é£Łåĵģ": 3018,
      "wor": 3019,
      "ample": 3020,
      "ä¿¡ä»»": 3021,
      "èĵĿ": 3022,
      "ç²ī": 3023,
      "åĴĮè°Ĳ": 3024,
      "åĮĸåŃ¦": 3025,
      "ç»ĦæĪĲ": 3026,
      "çĹĩçĬ¶": 3027,
      "ä¸ĩ": 3028,
      "åıĳå±ķçļĦ": 3029,
      "æĽ¿ä»£": 3030,
      "Ġfunction": 3031,
      "åħ¬éĩĮ": 3032,
      "é¥°": 3033,
      "æĶ»": 3034,
      "æĹı": 3035,
      "çİ¯å¢ĥä¸Ń": 3036,
      "äºĪ": 3037,
      "Ġchar": 3038,
      "Ġ25": 3039,
      "ĠĠĠĠĠ": 3040,
      "äºĴèģĶç½ĳ": 3041,
      "))": 3042,
      "list": 3043,
      "åıĤèĢĥ": 3044,
      "ä½ĵç³»": 3045,
      "ob": 3046,
      "ä¸¥éĩį": 3047,
      "çº¸": 3048,
      "æŁĲä¸ª": 3049,
      "è§£åĨ³éĹ®é¢ĺ": 3050,
      "åı¯èĥ½æĺ¯": 3051,
      "()`": 3052,
      "Ġequ": 3053,
      "ail": 3054,
      "çĽ®çļĦ": 3055,
      "åĨħåŃĺ": 3056,
      "æľ¨": 3057,
      "å¼ĢåıĳèĢħ": 3058,
      "çĦ¦èĻĳ": 3059,
      "åĽ¾çīĩ": 3060,
      "ä¸ºä»Ģä¹Ī": 3061,
      "ç¬¬äºĮ": 3062,
      "op": 3063,
      "è¿Ļç¯ĩ": 3064,
      "æľĢä½³": 3065,
      "æ±ł": 3066,
      "çļĦå·¥ä½ľ": 3067,
      "ature": 3068,
      "å¦Ĥä½ķå½±åĵį": 3069,
      "å©": 3070,
      "çĸĳ": 3071,
      "éĢļå¸¸ä¼ļ": 3072,
      "ä¹ĭåīį": 3073,
      "ace": 3074,
      "Ġ\\]": 3075,
      "äº¤äºĴ": 3076,
      "éĢĢ": 3077,
      "åĳ½ä»¤": 3078,
      "åįķä½į": 3079,
      "æĶ¶åħ¥": 3080,
      "åı¯ä»¥æĺ¯": 3081,
      "ire": 3082,
      "numb": 3083,
      "ä¸Ĭä¸ĭ": 3084,
      "åįĬ": 3085,
      "è·Ł": 3086,
      "èĥ½éĩı": 3087,
      "åħ¬åı¸çļĦ": 3088,
      "çī©åĵģ": 3089,
      "æĥ³è¦ģ": 3090,
      "ç»Ŀ": 3091,
      "é¦Ĩ": 3092,
      "ãĢĤâĢĿ": 3093,
      "æĹ¶çļĦ": 3094,
      "æľ¬è´¨": 3095,
      "çİ¯å¢ĥçļĦ": 3096,
      "åĨĻä¸Ģç¯ĩåħ³äºİ": 3097,
      "ust": 3098,
      "å½ĵåľ°": 3099,
      "ç´§æĢ¥": 3100,
      "é©±": 3101,
      "æıĴ": 3102,
      "ç»Łè®¡": 3103,
      "æīĵåį°": 3104,
      "ä¸ºæĤ¨": 3105,
      "ä»¿": 3106,
      "now": 3107,
      "è¯ŃéŁ³": 3108,
      "åĮ¹éħį": 3109,
      "ations": 3110,
      "èĩªçĦ¶è¯Ńè¨Ģ": 3111,
      "åºıåĪĹ": 3112,
      "æ¬§": 3113,
      "çļĦè¿ĩç¨ĭ": 3114,
      "çĽĳæµĭ": 3115,
      "ç±»ä¼¼": 3116,
      "èª": 3117,
      "ä»¥ä¸ĭåĩłä¸ªæĸ¹éĿ¢": 3118,
      "éŁ": 3119,
      "ãģĻ": 3120,
      "ç¾İåĽ½": 3121,
      "Ġwill": 3122,
      "æĪĲå°±": 3123,
      "çº³": 3124,
      "ĠåĴĮ": 3125,
      "åĬłå¯Ĩ": 3126,
      "24": 3127,
      "ff": 3128,
      "è§Ĥä¼Ĺ": 3129,
      "get": 3130,
      "çĶŁéķ¿": 3131,
      "çİ©å®¶": 3132,
      "åįļ": 3133,
      "è®¾æĸ½": 3134,
      "æ¨¡åŀĭçļĦ": 3135,
      "åĪ¶éĢł": 3136,
      "éĺ³åħī": 3137,
      "Ġä½¿çĶ¨": 3138,
      "ç¿»è¯ĳæĪĲ": 3139,
      "Java": 3140,
      "åĬ¨åĬĽ": 3141,
      "æ®Ĭ": 3142,
      "é¢Ħç®Ĺ": 3143,
      "ç¤¾ä¼ļçļĦ": 3144,
      "çıŃ": 3145,
      "ä¸įè¦ģ": 3146,
      "ç¡®è®¤": 3147,
      "å¹´é¾Ħ": 3148,
      "åľĨ": 3149,
      "ulti": 3150,
      "å¹¶ä¸į": 3151,
      "Ġâ": 3152,
      "change": 3153,
      "çī¹æ®Ĭ": 3154,
      "çļĦåħ·ä½ĵ": 3155,
      "è§īå¾Ĺ": 3156,
      "å®½": 3157,
      "è§Ħæ¨¡": 3158,
      "è±¡å¾ģ": 3159,
      "ä¿¡åı·": 3160,
      "åħ¬å¼ı": 3161,
      "éĥ¨éĹ¨": 3162,
      "é¢Ħéĺ²": 3163,
      "Ġi": 3164,
      "éº": 3165,
      "11": 3166,
      "ä¿¡æģ¯çļĦ": 3167,
      "æ»¡æĦı": 3168,
      "åģıå¥½": 3169,
      "ç´¯": 3170,
      "æŃ£å¸¸": 3171,
      "ä½Ľ": 3172,
      "å¤§éĩıçļĦ": 3173,
      "Ġinto": 3174,
      "ä¸Ģå®ļ": 3175,
      "çļĦé£İéĻ©": 3176,
      "lp": 3177,
      "åı¥è¯Ŀ": 3178,
      "Ġsentence": 3179,
      "åĪĽæĦı": 3180,
      "åĪĨåĪ«": 3181,
      "å¯¹è¯ĿåĨħå®¹": 3182,
      "åı¯éĿł": 3183,
      "Ġusing": 3184,
      "Ġtransl": 3185,
      "2024": 3186,
      "18": 3187,
      "æİĴæĶ¾": 3188,
      "éĴĪå¯¹": 3189,
      "æ¥": 3190,
      "row": 3191,
      "æµ·æ´ĭ": 3192,
      "æ°Ľ": 3193,
      "æķıæĦŁ": 3194,
      "åİŁçĲĨ": 3195,
      "13": 3196,
      "åį±": 3197,
      "èĬĤå¥ı": 3198,
      "éģµå®Ī": 3199,
      "Ġeach": 3200,
      "è¿İ": 3201,
      "åĮºåĿĹ": 3202,
      "åį´": 3203,
      "formation": 3204,
      "Ġprint": 3205,
      "æĿ¯": 3206,
      "Ġup": 3207,
      "æĸĩç«łä¸Ń": 3208,
      "æī°": 3209,
      "æ¯ıä¸ªäºº": 3210,
      "ial": 3211,
      "acters": 3212,
      "ä»¥ä¸ĭåĩł": 3213,
      "éĽ¶": 3214,
      "Ġspecific": 3215,
      "æĳĦåħ¥": 3216,
      "Ġæĺ¯": 3217,
      "è§£çŃĶ": 3218,
      "æĪĳå°Ĩ": 3219,
      "æ²ī": 3220,
      "æ´²": 3221,
      "ath": 3222,
      "éķľ": 3223,
      "è´Łè´£": 3224,
      "Ġabout": 3225,
      "èĬĤçĤ¹": 3226,
      "éĤ£äºĽ": 3227,
      "æĮ¥": 3228,
      "æĥł": 3229,
      "çļĦä¸»è¦ģ": 3230,
      "**ãĢĤ": 3231,
      "åıĤåĬł": 3232,
      "Ġåľ¨": 3233,
      "é»ĺ": 3234,
      "åįĥ": 3235,
      "Ġrate": 3236,
      "èĪŀ": 3237,
      "å¹¸": 3238,
      "èĸ": 3239,
      "ong": 3240,
      "è¶³å¤ŁçļĦ": 3241,
      "ther": 3242,
      "çĶ³è¯·": 3243,
      "æ²Ļ": 3244,
      "åĿĲ": 3245,
      "è°ĥçĶ¨": 3246,
      "éĩİ": 3247,
      "gy": 3248,
      "åį³ä½¿": 3249,
      "erm": 3250,
      "çī©çļĦ": 3251,
      "è½¦è¾Ĩ": 3252,
      "ä»¥ä¸ĭæĺ¯ä¸Ģä¸ª": 3253,
      "éĽĨæĪĲ": 3254,
      "åĴĮå¯¹": 3255,
      "è±Ĩ": 3256,
      "ä¹İ": 3257,
      "ast": 3258,
      "è§Ħå¾ĭ": 3259,
      "ĠPython": 3260,
      "èĥŀ": 3261,
      "å¹»": 3262,
      "app": 3263,
      "Ġmany": 3264,
      "è¿ĲèĲ¥": 3265,
      "æĹ¥å¸¸çĶŁæ´»": 3266,
      "Ġuse": 3267,
      "Ġcont": 3268,
      "ä¿ĿéĻ©": 3269,
      "æ¯ıä¸Ģ": 3270,
      "ç½Ĺ": 3271,
      "åħ¼": 3272,
      "åĭĩ": 3273,
      "ĠHow": 3274,
      "æĢģåº¦": 3275,
      "ç§ĭ": 3276,
      "èĤĮ": 3277,
      "ä»Ĭå¤©å¤©æ°Ķ": 3278,
      "Ġwhe": 3279,
      "æĺ¯å¤ļå°ĳ": 3280,
      "è·³": 3281,
      "dition": 3282,
      "..": 3283,
      "åľ¨ä¸įåĲĮ": 3284,
      "å¯¹æĸ¹": 3285,
      "è¯Ħä»·": 3286,
      "å±ŀäºİ": 3287,
      "éĿĴ": 3288,
      "iles": 3289,
      "èĦĤ": 3290,
      "ä¿®å¤į": 3291,
      "èī²å½©": 3292,
      "Ð¾": 3293,
      "ress": 3294,
      "åĽ¢éĺŁæĪĲåĳĺ": 3295,
      "ç±»åŀĭçļĦ": 3296,
      "è¦Ĩ": 3297,
      "Ġexchange": 3298,
      "ä¸Ĭä¸ĭæĸĩ": 3299,
      "èĪ¬": 3300,
      "æį·": 3301,
      "åįĪ": 3302,
      "åħ³éĶ®åľ¨äºİ": 3303,
      "å°º": 3304,
      "ï¼ļâĢľ": 3305,
      "èĽĭçĻ½": 3306,
      "é¢ĺçĽ®": 3307,
      "æĲŃ": 3308,
      "Ġinformation": 3309,
      "åģıè§ģ": 3310,
      "ä¸»ä¹ī": 3311,
      "To": 3312,
      "èĶ¬": 3313,
      "è§Ĩè§Ĵ": 3314,
      "éĩıåŃĲè®¡ç®Ĺ": 3315,
      "äº§åĵģçļĦ": 3316,
      "atest": 3317,
      "å¼ķèµ·": 3318,
      "æ²³": 3319,
      "Ġcalcul": 3320,
      "æİĮ": 3321,
      "ç²¾ç¡®": 3322,
      "çħ": 3323,
      "æķ°æį®éĽĨ": 3324,
      "å±ı": 3325,
      "çĶļ": 3326,
      "éĢĤå½ĵçļĦ": 3327,
      "14": 3328,
      "ä¸ĵä¸ļçļĦ": 3329,
      "å°¤åħ¶æĺ¯": 3330,
      "èĢĮæĺ¯": 3331,
      "å®ļä½į": 3332,
      "åı¯æĮģç»Ńåıĳå±ķ": 3333,
      "ç»Ĩèĥŀ": 3334,
      "åĮºåĿĹéĵ¾": 3335,
      "åŃ¦æľ¯": 3336,
      "±ä¹Ĳ": 3337,
      "æľĢå°ı": 3338,
      "éĢĲæŃ¥": 3339,
      "èµĭ": 3340,
      "è¸ª": 3341,
      "æ°ĽåĽ´": 3342,
      "Ġnews": 3343,
      "è½®": 3344,
      "ä¹ı": 3345,
      "å¹ķ": 3346,
      "æı¡": 3347,
      "åı¯ä»¥å¸®åĬ©ä½ł": 3348,
      "åĨĽ": 3349,
      "æ¸©æļĸ": 3350,
      "æİĪ": 3351,
      "ĠThis": 3352,
      "äººå·¥æĻºèĥ½ä¼¦çĲĨ": 3353,
      "èĭ±è¯Ń": 3354,
      "æĹłè®ºæĺ¯": 3355,
      "è¯¦ç»ĨçļĦ": 3356,
      "çĶļèĩ³": 3357,
      "æķ°çļĦ": 3358,
      "âĢĿãĢģ": 3359,
      "è¯Ńæ³ķ": 3360,
      "Ġnum": 3361,
      "å¤ĸéĥ¨": 3362,
      "éĵģ": 3363,
      "åĨħçļĦ": 3364,
      "æ©": 3365,
      "è´¥": 3366,
      "ard": 3367,
      "éĹŃ": 3368,
      "ç¬¬ä¸Ģ": 3369,
      "Ġhelp": 3370,
      "åĬ©æīĭ": 3371,
      "è¿Ļä¸ªéĹ®é¢ĺ": 3372,
      "æķĻåŃ¦": 3373,
      "è¯·æ³¨æĦı": 3374,
      "åĬłéĢŁ": 3375,
      "å°±æĺ¯": 3376,
      "æľīçļĦ": 3377,
      "å¹¿åĳĬ": 3378,
      "ç®Ģæ´ģ": 3379,
      "çĶŁæĪĲä¸Ģä¸ª": 3380,
      "åħħåĪĨ": 3381,
      "çĻ¾": 3382,
      "çĩĥ": 3383,
      "è·¨æĸĩåĮĸ": 3384,
      "è·ĳ": 3385,
      "å¼±": 3386,
      "æľĢæĸ°çļĦ": 3387,
      "åħ·å¤ĩ": 3388,
      "éĢļè¿ĩä¸Ĭè¿°": 3389,
      "åºĶçĶ¨ç¨ĭåºı": 3390,
      "ä¸ĵå®¶": 3391,
      "æľīä¸Ģä¸ª": 3392,
      "ia": 3393,
      "çĶµèĦĳ": 3394,
      "ç«¥": 3395,
      "irst": 3396,
      "Ġout": 3397,
      "ç¬¬ä¸ī": 3398,
      "åĿĢ": 3399,
      "çļĦæĥħåĨµ": 3400,
      "ä¼łéĢĴ": 3401,
      "åŃ¦æł¡": 3402,
      "æ³¡": 3403,
      "str": 3404,
      "day": 3405,
      "'re": 3406,
      "åī©": 3407,
      "æ°´æŀľ": 3408,
      ");": 3409,
      "ï¼Į`": 3410,
      "èĶ¬èıľ": 3411,
      "çĶ¨æĿ¥": 3412,
      "âĢĿãĢģâĢľ": 3413,
      "\\(": 3414,
      "name": 3415,
      "éļ¾ä»¥": 3416,
      "æ³¨éĩį": 3417,
      "ä¼łè¾ĵ": 3418,
      "çļĦåŁºç¡Ģ": 3419,
      "ä½ĵçİ°åľ¨": 3420,
      "ie": 3421,
      "å¡«": 3422,
      "çľģ": 3423,
      "æļĹ": 3424,
      "æĶ»åĩ»": 3425,
      "num": 3426,
      "è®©ä½ł": 3427,
      "éĢļä¿¡": 3428,
      "ãĤĴ": 3429,
      "å°ģ": 3430,
      "çļ®èĤ¤": 3431,
      "åįıè®®": 3432,
      "åģ¶": 3433,
      "çŃīé¢ĨåŁŁ": 3434,
      "è¿Ľåħ¥": 3435,
      "å·¥ä¸ļ": 3436,
      "ç¼ĸç¨ĭè¯Ńè¨Ģ": 3437,
      "ound": 3438,
      "é¢Ĩå¯¼": 3439,
      "èĪĴéĢĤ": 3440,
      "èĩªçĦ¶è¯Ńè¨Ģå¤ĦçĲĨ": 3441,
      "ä½łå¥½": 3442,
      "ç»´æĮģ": 3443,
      "æİ¨çĲĨ": 3444,
      "éļĶ": 3445,
      "çļĦæĸ¹æ³ķ": 3446,
      "çļĦéĩįè¦ģæĢ§": 3447,
      "ç¼ĸè¾ĳ": 3448,
      "æīĢéľĢ": 3449,
      "è¿¹": 3450,
      "æĺĵäºİ": 3451,
      "çĶŁæ´»çļĦ": 3452,
      "è¿Ļå°Ĩ": 3453,
      "éĿ¢ç§¯": 3454,
      "ä¸įéĶĻ": 3455,
      "çĥĪ": 3456,
      "é«ĺåº¦": 3457,
      "æĸ¹éĿ¢çļĦ": 3458,
      "å¥Ĺ": 3459,
      "ever": 3460,
      "èµĦéĩĳ": 3461,
      "çļĦä¸Ģéĥ¨åĪĨ": 3462,
      "æľīçĿĢ": 3463,
      "eng": 3464,
      "ç»ĵæĿŁ": 3465,
      "ĠÃĹ": 3466,
      "æ¶ĪèĢĹ": 3467,
      "åı¯èĥ½åľ¨": 3468,
      "łéģĵ": 3469,
      "Ġlatest": 3470,
      "å£°éŁ³": 3471,
      "Ġreal": 3472,
      "ìĿ": 3473,
      "æīĭæ®µ": 3474,
      "---": 3475,
      "é¢ĦæľŁ": 3476,
      "åĵĪ": 3477,
      "å¸¦æĿ¥äºĨ": 3478,
      "è´´": 3479,
      "æĹħæ¸¸": 3480,
      "ä¸ĵæ³¨äºİ": 3481,
      "çĶ¨æĪ·ä½ĵéªĮ": 3482,
      "å¹ħ": 3483,
      "ç§°ä¸º": 3484,
      "çĻ»": 3485,
      "æĺ¯æĮĩ": 3486,
      "éĢīæĭ©åĲĪéĢĤçļĦ": 3487,
      "ç¼ºä¹ı": 3488,
      "åıĳæĮ¥": 3489,
      "æŁ¥æī¾": 3490,
      "åĨľä¸ļ": 3491,
      "æĢ§ä¸İ": 3492,
      "åĲĪåĲĮ": 3493,
      "çļĦç»ĵæŀľ": 3494,
      "æľªçŁ¥": 3495,
      "é¢ĳçİĩ": 3496,
      "Ġthen": 3497,
      "åĳ¨æľŁ": 3498,
      "ĊĠĠĠĠ": 3499,
      "æ·±è¿ľ": 3500,
      "ick": 3501,
      "æĮĩæłĩ": 3502,
      "æľ¬èº«": 3503,
      "ä¸ĭæĿ¥": 3504,
      "çļĦå°ı": 3505,
      "SQL": 3506,
      "çĶ¨æĪ·çļĦ": 3507,
      "åĨħå¿ĥ": 3508,
      "ments": 3509,
      "æĢĿæĥ³": 3510,
      "è®©äºº": 3511,
      "oc": 3512,
      "ç§¯æŀģçļĦ": 3513,
      "ĊĠĠĠĠĠĠĠĠĠĠĠ": 3514,
      "æĹĭ": 3515,
      "è®°ä½ı": 3516,
      "è§Ħå®ļ": 3517,
      "Ġlist": 3518,
      "perature": 3519,
      "æ»ĳ": 3520,
      "æĸ¹ç¨ĭ": 3521,
      "ç¬ĳ": 3522,
      "æİ¨å¹¿": 3523,
      "Ġarr": 3524,
      "æĿĳ": 3525,
      "omet": 3526,
      "ç»©": 3527,
      "tr": 3528,
      "ç»ĻæĪĳ": 3529,
      "ä½łéľĢè¦ģ": 3530,
      "16": 3531,
      "åľ¨å®ŀéĻħ": 3532,
      "####": 3533,
      "å°Ĩåħ¶": 3534,
      "ç½²": 3535,
      "çªģçł´": 3536,
      "vert": 3537,
      "è½¬åĮĸ": 3538,
      "æ°ı": 3539,
      "æĺ¯åĲ¦æľī": 3540,
      "åŃĲçļĦ": 3541,
      "ï¼īï¼ļ": 3542,
      "ip": 3543,
      "çļĦåĨħå®¹": 3544,
      "Ġknow": 3545,
      "çłĶåıĳ": 3546,
      "è´ŁéĿ¢": 3547,
      "not": 3548,
      "æĥ³æ³ķ": 3549,
      "éļıæĹ¶": 3550,
      "çĶ²": 3551,
      "çĥ¤": 3552,
      "è´Ńçī©": 3553,
      "å°ļ": 3554,
      "åħ¶æ¬¡": 3555,
      "ç¥Ŀ": 3556,
      "æĿ¥å®ŀçİ°": 3557,
      "è¯·æıĲä¾Ľ": 3558,
      "åŁºåĽł": 3559,
      "æĹ¶ä»£": 3560,
      "çªĹ": 3561,
      "ark": 3562,
      "é¡ºåºı": 3563,
      "éĢļå¸¸éľĢè¦ģ": 3564,
      "çī¹åĪ«æĺ¯": 3565,
      "çīĻ": 3566,
      "çĶŁæ´»æĸ¹å¼ı": 3567,
      "çĤ¼": 3568,
      "å¸®åĬ©æĤ¨": 3569,
      "è¿Ľå±ķ": 3570,
      "å®£": 3571,
      "ng": 3572,
      "éĺµ": 3573,
      "é¸£": 3574,
      "å¿ĥæĥħ": 3575,
      "Ġsol": 3576,
      "äººå·¥æĻºèĥ½åľ¨": 3577,
      "sq": 3578,
      "æİ¥æĶ¶": 3579,
      "åı³": 3580,
      "æ¿ĢåĬ±": 3581,
      "çĤ¹åĩ»": 3582,
      "è¦ĨçĽĸ": 3583,
      "ree": 3584,
      "ä¿Ŀéļľ": 3585,
      "çĽĳç®¡": 3586,
      "from": 3587,
      "Ðµ": 3588,
      "å¡ĳæĸĻ": 3589,
      "åı¯èĥ½æĢ§": 3590,
      "Ġcheck": 3591,
      "ical": 3592,
      "èĻ«": 3593,
      "å¤©çļĦ": 3594,
      "æ¨¡åĿĹ": 3595,
      "vers": 3596,
      "æ¦Ĥçİĩ": 3597,
      "åĪ©çĽĬ": 3598,
      "åºĬ": 3599,
      "ces": 3600,
      "çŁ©": 3601,
      "ä¹Łä¼ļ": 3602,
      "åŃ¦ä¼ļ": 3603,
      "çĶŁæĢģç³»ç»Ł": 3604,
      "ä¸¥æł¼": 3605,
      "çĬ¯": 3606,
      "ä¸ĭéĻį": 3607,
      "æĢĢ": 3608,
      "ĠIf": 3609,
      "¹æŀľ": 3610,
      "åĪº": 3611,
      "é©±åĬ¨": 3612,
      "çĶŁåŃĺ": 3613,
      "è´µ": 3614,
      "Ġmiles": 3615,
      "ä»įçĦ¶": 3616,
      "ake": 3617,
      "çĽ¸åºĶçļĦ": 3618,
      "è®©æĪĳä»¬": 3619,
      "Ġmulti": 3620,
      "å·²çŁ¥": 3621,
      "ome": 3622,
      "ä½¿çĶ¨çļĦ": 3623,
      "åıĸå¾Ĺ": 3624,
      "èĢĲå¿ĥ": 3625,
      "ning": 3626,
      "åĩĨç¡®æĢ§": 3627,
      "è¯Ńå¢ĥ": 3628,
      "å°ıæĺİ": 3629,
      "angu": 3630,
      "Ġ30": 3631,
      "è½»æĿ¾": 3632,
      "æ¬¢è¿İ": 3633,
      "æĥ³è¿ĩ": 3634,
      "ä½įäºİ": 3635,
      "çĶµæ±ł": 3636,
      "èĭ¹æŀľ": 3637,
      "æĢ§è´¨": 3638,
      "ous": 3639,
      "åŁºæľ¬çļĦ": 3640,
      "é¡¶": 3641,
      "æµģåĬ¨": 3642,
      "æłĩçŃ¾": 3643,
      "èĩ³å°ĳ": 3644,
      "é«ĺè´¨éĩı": 3645,
      "åĴĮçĲĨè§£": 3646,
      "We": 3647,
      "çİ¯å¢ĥä¿ĿæĬ¤": 3648,
      "ç¡¬ä»¶": 3649,
      "åĨĮ": 3650,
      "æŀĦæĪĲ": 3651,
      "ell": 3652,
      "çģ¾": 3653,
      "fere": 3654,
      "Script": 3655,
      "æĽ´é«ĺæķĪ": 3656,
      "çľĭå¾ħ": 3657,
      "`ï¼Į": 3658,
      "urren": 3659,
      "å¨±ä¹Ĳ": 3660,
      "å¸¦æĿ¥çļĦ": 3661,
      "'t": 3662,
      "æŁĶ": 3663,
      "èĥģ": 3664,
      "åı¯ä»¥æıĲé«ĺ": 3665,
      "å®ĥçļĦ": 3666,
      "åŃ£èĬĤ": 3667,
      "Ġbut": 3668,
      "ç¾¤ä½ĵ": 3669,
      "æķ°æį®åĴĮ": 3670,
      "åĪĨä¸º": 3671,
      "åĲĪè§Ħ": 3672,
      "erv": 3673,
      "ä½ľä¸ºAI": 3674,
      "å½¢è±¡": 3675,
      "æī®": 3676,
      "æľŁå¾ħ": 3677,
      "åĩıè½»": 3678,
      "æµı": 3679,
      "é¸Ł": 3680,
      "ç£ģ": 3681,
      "æľīåĵªäºĽ": 3682,
      "iven": 3683,
      "çķĮéĿ¢": 3684,
      "ents": 3685,
      "æľīä¸Ģ": 3686,
      "æµıè§Ī": 3687,
      "è®©æĪĳ": 3688,
      "åĲįä¸º": 3689,
      "ä¾§": 3690,
      "å¨ģèĥģ": 3691,
      "ç¥ŀç§ĺ": 3692,
      "ä¾¿åĪ©": 3693,
      "ign": 3694,
      "Ġwas": 3695,
      "æŁĲç§į": 3696,
      "åĪł": 3697,
      "æ³¢åĬ¨": 3698,
      "ĠĊ": 3699,
      "çļĦåŃ¦ä¹ł": 3700,
      "æģ¶": 3701,
      "éĽª": 3702,
      "ç¾İé£Ł": 3703,
      "å¥¥": 3704,
      "åĢį": 3705,
      "ari": 3706,
      "gle": 3707,
      "åİħ": 3708,
      "åı¯ä»¥èĢĥèĻĳ": 3709,
      "å²ģ": 3710,
      "éĢļè¿ĩè¿ĻäºĽ": 3711,
      "Ġwould": 3712,
      "ä¸įä»ħèĥ½å¤Ł": 3713,
      "æĳĺ": 3714,
      "ä½ĵçİ°äºĨ": 3715,
      "æĪ¿éĹ´": 3716,
      "åĨĻä½ľ": 3717,
      "åĨĴ": 3718,
      "å½¢çĬ¶": 3719,
      "åĴĮæķ°æį®": 3720,
      "èİī": 3721,
      "ohn": 3722,
      "è¿Ŀ": 3723,
      "æĪĲåĪĨ": 3724,
      "æ±ī": 3725,
      "æıĲä¾ĽçļĦ": 3726,
      "è£ħé¥°": 3727,
      "æĦŁåĴĮ": 3728,
      "åĨ¥": 3729,
      "å¸ĥå±Ģ": 3730,
      "æĦŁåħ´è¶£": 3731,
      "å®īåħ¨çļĦ": 3732,
      "å¿ĥçĲĨåģ¥åº·": 3733,
      "my": 3734,
      "----": 3735,
      "è¿ĻæĦıåĳ³çĿĢ": 3736,
      "èµĦæºĲçļĦ": 3737,
      "èĩªçĦ¶çļĦ": 3738,
      "æ¡Īä¾ĭ": 3739,
      "è¯ģæĺİ": 3740,
      "éľĢè¦ģèĢĥèĻĳ": 3741,
      "åĪĽéĢłåĬĽ": 3742,
      "æķĳ": 3743,
      "æįķ": 3744,
      "çļĦæķħäºĭ": 3745,
      "40": 3746,
      "å·¦": 3747,
      "å¼ºå¤§çļĦ": 3748,
      "åĬ¨ä½ľ": 3749,
      "çŃīå¾ħ": 3750,
      "è¿Ń": 3751,
      "Ġë": 3752,
      "æķħéļľ": 3753,
      "ç¼ĵè§£": 3754,
      "numbers": 3755,
      "æľįåĬ¡çļĦ": 3756,
      "çĶŁç´ł": 3757,
      ").": 3758,
      "å½ĵçĦ¶åı¯ä»¥": 3759,
      "API": 3760,
      "ĠUSD": 3761,
      "åĴĮæĸĩåĮĸ": 3762,
      "éĩįè§Ĩ": 3763,
      "ä¹Łåı¯èĥ½": 3764,
      "æİ¥è§¦": 3765,
      "mat": 3766,
      "åĽŀæĶ¶": 3767,
      "æī®æ¼Ķ": 3768,
      "åĪļ": 3769,
      "ç»ĵè®º": 3770,
      "çĽ¸ä¼¼": 3771,
      "**ï¼Ī": 3772,
      "çł´åĿı": 3773,
      "éļıæľºæķ°": 3774,
      "æľ«": 3775,
      "éĢĤçĶ¨äºİ": 3776,
      "å°Ĩä¼ļ": 3777,
      "è®¤è¯Ĩ": 3778,
      "å¯¸": 3779,
      "string": 3780,
      "çļĦæĥħåĨµä¸ĭ": 3781,
      "åĪłéĻ¤": 3782,
      "äººå·¥æĻºèĥ½çļĦ": 3783,
      "åĩĨç¡®åľ°": 3784,
      "åıĬåħ¶": 3785,
      "Ġcol": 3786,
      "å¹¸ç¦ı": 3787,
      "åĩĢ": 3788,
      "è¿·": 3789,
      "éĿ¢è¯ķ": 3790,
      "åĴĮç®¡çĲĨ": 3791,
      "è¿ĻåĮħæĭ¬": 3792,
      "ä¸Ģç³»åĪĹ": 3793,
      "urrency": 3794,
      "Ġcomp": 3795,
      "ä¸Ŀ": 3796,
      "æĮº": 3797,
      "ems": 3798,
      "æľīæīĢä¸įåĲĮ": 3799,
      "åĿļæĮģ": 3800,
      "ç¼ĸçłģ": 3801,
      "åºĶçĶ¨äºİ": 3802,
      "ĠV": 3803,
      "æĪĲä¸ºäºĨ": 3804,
      "çļĦæĢ»": 3805,
      "åĨ¥æĥ³": 3806,
      "å¿½": 3807,
      "æīĵå¼Ģ": 3808,
      "ç«ĭåį³": 3809,
      "Ġtem": 3810,
      "su": 3811,
      "é¢Ŀå¤ĸçļĦ": 3812,
      "èĤ¥": 3813,
      "éĺ»": 3814,
      "é£ŀè¡Į": 3815,
      "çĽĲ": 3816,
      "éĴ±": 3817,
      "æ¡¥": 3818,
      "æĻ®åıĬ": 3819,
      "æ¯Ķä¾ĭ": 3820,
      "ML": 3821,
      "Ġcannot": 3822,
      "åĲĮæł·": 3823,
      "80": 3824,
      "oug": 3825,
      "æ°´åĪĨ": 3826,
      "å°±ä¸ļ": 3827,
      "å°¾": 3828,
      "),": 3829,
      "sw": 3830,
      "Ġsum": 3831,
      "è¯»èĢħ": 3832,
      "ä¸įè¶³": 3833,
      ".\"": 3834,
      "ĠIn": 3835,
      "åĦ¿ç«¥": 3836,
      "çļĦäºĭæĥħ": 3837,
      "Ġnumbers": 3838,
      "å°½éĩı": 3839,
      "Ġtw": 3840,
      "ä¸įç¡®å®ļ": 3841,
      "åŃĹæ¯į": 3842,
      "æĿĥéĻĲ": 3843,
      "æ¯Ľ": 3844,
      "æľīäºĽ": 3845,
      "æ¶¦": 3846,
      "å³": 3847,
      "å£¤": 3848,
      "ç¢į": 3849,
      "åľ°çĤ¹": 3850,
      "ä¼łæī¿": 3851,
      "Ġsub": 3852,
      "ens": 3853,
      "ä¹ħ": 3854,
      "21": 3855,
      "æµĵ": 3856,
      "çºł": 3857,
      "æ¼«": 3858,
      "çĥ¹": 3859,
      "çĹħæ¯Ĵ": 3860,
      "å®ģ": 3861,
      "ç¨³å®ļæĢ§": 3862,
      "æ°¸": 3863,
      "æĶ¿æ²»": 3864,
      "çŃīæĸ¹å¼ı": 3865,
      "å¼ķåħ¥": 3866,
      "å±Ĥæ¬¡": 3867,
      "æĹ¶æľŁ": 3868,
      "è´·": 3869,
      "åĲįåŃĹ": 3870,
      "ç¥ŀç»ıç½ĳç»ľ": 3871,
      "éŃĶ": 3872,
      "æ¸łéģĵ": 3873,
      "çĶľ": 3874,
      "è°ĥèĬĤ": 3875,
      "åĲ«ä¹ī": 3876,
      "ä¸ŃçļĦåºĶçĶ¨": 3877,
      "Ġwords": 3878,
      "ÑĤ": 3879,
      "å¤įæĿĤæĢ§": 3880,
      "åºŁ": 3881,
      "åıĳéĢģ": 3882,
      "Ð°": 3883,
      "å°½ç®¡": 3884,
      "æ°§åĮĸ": 3885,
      "åľ¨å¤ĦçĲĨ": 3886,
      "ç¬¦åı·": 3887,
      "éļĲç§ģä¿ĿæĬ¤": 3888,
      "åľŁå£¤": 3889,
      "æļ´": 3890,
      "ä¾µ": 3891,
      "Ġcomm": 3892,
      "Ġexp": 3893,
      "å®ļåĪ¶": 3894,
      "é¡µéĿ¢": 3895,
      "Ġdet": 3896,
      "åİŁå§ĭ": 3897,
      "å¼ķå¯¼": 3898,
      "è¿ĩå¾Ĺ": 3899,
      "æ¼ı": 3900,
      "æİĮæı¡": 3901,
      "å¤§èĦĳ": 3902,
      "æĽ´å¥½çļĦ": 3903,
      "ä½łåı¯ä»¥ä½¿çĶ¨": 3904,
      "å¹´è½»": 3905,
      "åĴĮåĪĨæŀĲ": 3906,
      "ĠEUR": 3907,
      "ID": 3908,
      "éĥ¨ç½²": 3909,
      "å¸®æĪĳ": 3910,
      "red": 3911,
      "åİļ": 3912,
      "è°Ī": 3913,
      "Ġcode": 3914,
      "åı¯èĥ½ä¼ļå¯¼èĩ´": 3915,
      "çļĦåģ¥åº·": 3916,
      "Ġexample": 3917,
      "çļĦåŁºæľ¬": 3918,
      "ç»ıåħ¸": 3919,
      "æ³Ħ": 3920,
      "íķ": 3921,
      "åı¯ä»¥çĶ¨äºİ": 3922,
      "box": 3923,
      "åįł": 3924,
      "æ»¤": 3925,
      "éĻ¤äºĨ": 3926,
      "é¡¾å®¢": 3927,
      "åľ°åĿĢ": 3928,
      "è¡¨æĺİ": 3929,
      "è§Ĩä¸º": 3930,
      "ER": 3931,
      "åĪ°äºĨ": 3932,
      "è´¦æĪ·": 3933,
      "ry": 3934,
      "çĤİ": 3935,
      "ä¸įä»ħä»ħ": 3936,
      "ä¸ªæĢ§åĮĸçļĦ": 3937,
      "é¥ª": 3938,
      "è¯Ŀé¢ĺ": 3939,
      "çĥ¹é¥ª": 3940,
      "ä¼ĺæĥł": 3941,
      "sum": 3942,
      "Ġ>": 3943,
      "åħ°": 3944,
      "åı«": 3945,
      "æ¶µ": 3946,
      "åĴĮåºĶçĶ¨": 3947,
      "å°ıè¯´": 3948,
      "ä»¥åıĬå¯¹": 3949,
      "æĪĸåħ¶ä»ĸ": 3950,
      "è°±": 3951,
      "les": 3952,
      "å°¼": 3953,
      "è¿ĺæľī": 3954,
      "èµı": 3955,
      "è¿Ļæĺ¯ä¸Ģä¸ª": 3956,
      "anguage": 3957,
      "å®¡æŁ¥": 3958,
      "åĿĩè¡¡": 3959,
      "è¿ľç¨ĭ": 3960,
      "æĲŃéħį": 3961,
      "sp": 3962,
      "åįĸ": 3963,
      "æĿ¥èĩª": 3964,
      "è¿Ńä»£": 3965,
      "äººéĻħ": 3966,
      "åıįæĺłäºĨ": 3967,
      "æĸĩæĺİ": 3968,
      "å¹¶åľ¨": 3969,
      "è¯įæ±ĩ": 3970,
      "éģįåİĨ": 3971,
      "çļĦçĲĨè§£": 3972,
      "fore": 3973,
      "æĤ¨åı¯ä»¥": 3974,
      "è°·": 3975,
      "æıĲéĨĴ": 3976,
      "åı¯èĥ½æĽ´": 3977,
      "ä¹Łèĥ½": 3978,
      "è´§å¸ģ": 3979,
      "æľīéĻĲ": 3980,
      "æľŁæľĽ": 3981,
      "ful": 3982,
      "åĪĨæŀĲåĴĮ": 3983,
      "åį«çĶŁ": 3984,
      "æ³ķå¾ĭæ³ķè§Ħ": 3985,
      "æīĭæľ¯": 3986,
      "çŃīå¤ļä¸ª": 3987,
      "å±ŀæĢ§": 3988,
      "èĭ±éĩĮ": 3989,
      "ex": 3990,
      "æĭĵ": 3991,
      "âĢĶâĢĶ": 3992,
      "æľīè¶£çļĦ": 3993,
      "è¡¨éĿ¢": 3994,
      "new": 3995,
      "çĶ·": 3996,
      "æĦıæĢĿ": 3997,
      "æĪĲæŀľ": 3998,
      "AR": 3999,
      "å®¶äºº": 4000,
      "æģĴ": 4001,
      "SS": 4002,
      "å²Ľ": 4003,
      "åŃ¦ç§ĳ": 4004,
      "èī²çļĦ": 4005,
      "Ġrequ": 4006,
      "HT": 4007,
      "é¾Ļ": 4008,
      "åŃĹåħ¸": 4009,
      "yst": 4010,
      "åħ³éĶ®è¯į": 4011,
      "`ãĢĤ": 4012,
      "èĽĭçĻ½è´¨": 4013,
      "å¿ĥæĢģ": 4014,
      "æįŁå¤±": 4015,
      "å¹³æĸ¹": 4016,
      "æ¯ıæ¬¡": 4017,
      "ãģ¾": 4018,
      "ä½łæľī": 4019,
      "45": 4020,
      "éĩįè¦ģçļĦæĺ¯": 4021,
      "Ġå°Ĩ": 4022,
      "çĪ¶": 4023,
      "åĲİç»Ń": 4024,
      "Ġtheir": 4025,
      "tions": 4026,
      "çĵ¶": 4027,
      "é¢ĨåŁŁçļĦåºĶçĶ¨": 4028,
      "åĪĿå§ĭ": 4029,
      "Ġany": 4030,
      "åį·": 4031,
      "å¤§åŃ¦": 4032,
      "$.": 4033,
      "ä¼½": 4034,
      "Ġcre": 4035,
      "çļĦèĥ½åĬĽ": 4036,
      "äº§çĶŁäºĨ": 4037,
      "è¯º": 4038,
      "ç§ĳåŃ¦å®¶": 4039,
      "åįıè°ĥ": 4040,
      "ãģĹ": 4041,
      "ied": 4042,
      "æķ°åŃĹåĮĸ": 4043,
      "æ··åĲĪ": 4044,
      "çŁ¥è¯ĨåĴĮ": 4045,
      "çļĦå®īåħ¨": 4046,
      "Ġvalue": 4047,
      "Ġel": 4048,
      "çªģçĦ¶": 4049,
      "åľ¨æŁĲäºĽæĥħåĨµä¸ĭ": 4050,
      "å·ŀ": 4051,
      "è§£æŀĲ": 4052,
      "åĢŁ": 4053,
      "çº¿æĢ§": 4054,
      "oogle": 4055,
      "åĲĦä¸ª": 4056,
      "çľŁçļĦ": 4057,
      "éľĢæ±ĤåĴĮ": 4058,
      "æĥĬ": 4059,
      "å®ł": 4060,
      "å¥¹çļĦ": 4061,
      "éĻĦ": 4062,
      "æĦŁæŁĵ": 4063,
      "LE": 4064,
      "Ġaccess": 4065,
      "éĶģ": 4066,
      "èĤĮèĤī": 4067,
      "//": 4068,
      "ash": 4069,
      "Ġall": 4070,
      "èĩªåĬ¨é©¾é©¶": 4071,
      "çķħ": 4072,
      "Ġdiv": 4073,
      "åľ°æĸ¹": 4074,
      "Ġused": 4075,
      "èļ": 4076,
      "éģĩåĪ°è¿ĩ": 4077,
      "åŃ¦ä¹łæĸ°": 4078,
      "èĦ±": 4079,
      "ä¸»è§Ĥä½ĵéªĮ": 4080,
      "Ġtext": 4081,
      "ä¿Ŀè¯ģ": 4082,
      "energy": 4083,
      "200": 4084,
      "åºĶçĶ¨ä¸Ń": 4085,
      "Ġpar": 4086,
      "æģĲ": 4087,
      "éĵ¾æİ¥": 4088,
      "æıĲåīį": 4089,
      "äº§ä¸ļ": 4090,
      "ä¸Ģä½į": 4091,
      "ond": 4092,
      "æĺ¯çĶ±": 4093,
      "ç»´çĶŁç´ł": 4094,
      "å¿ĺ": 4095,
      "æĸ¹ä¾¿": 4096,
      "è¿ħ": 4097,
      "åĴĮæ²»çĸĹ": 4098,
      "è¿Ļåı¥è¯Ŀ": 4099,
      "æĮĩåįĹ": 4100,
      "éģ¿åħįè¿ĩåº¦": 4101,
      "ç¡®ä¿ĿæīĢæľī": 4102,
      "éĩĳé¢Ŀ": 4103,
      "Ġincl": 4104,
      "ãģ«": 4105,
      "åĪĨè§£": 4106,
      "ä¸Ģä»½": 4107,
      "èĩªä¸»": 4108,
      "ject": 4109,
      "åŃ¤": 4110,
      "Ġå¦Ĥæŀľ": 4111,
      "çļĦçİ¯å¢ĥ": 4112,
      "èıĮ": 4113,
      "åĢº": 4114,
      "æľŁéĹ´": 4115,
      "ĠHowever": 4116,
      "AIæĬĢæľ¯": 4117,
      "åĴĮç¤¾ä¼ļ": 4118,
      "ï¼ĮâĢľ": 4119,
      "æĭ¼": 4120,
      "é¢Ĺ": 4121,
      "è¿ŀç»Ń": 4122,
      "Ġpr": 4123,
      "çļĦæĥħæĦŁ": 4124,
      "å¤±è´¥": 4125,
      "æıĲé«ĺäºĨ": 4126,
      "St": 4127,
      "åħ¼å®¹": 4128,
      "ç¾İå¥½": 4129,
      "è¶ħè¿ĩ": 4130,
      "çļĦæĬĢæľ¯": 4131,
      "Ġother": 4132,
      "èĦļæľ¬": 4133,
      "ä¿ĿåŃĺ": 4134,
      "ä¹ĭéĹ´çļĦåħ³ç³»": 4135,
      "åı¯èĥ½æľī": 4136,
      "ä¹ĺä»¥": 4137,
      "ĠFor": 4138,
      "çļĦåĲĮæĹ¶": 4139,
      "æĥħå¢ĥ": 4140,
      "åĺ": 4141,
      "ep": 4142,
      "åĩıå°ĳå¯¹": 4143,
      "23": 4144,
      "lic": 4145,
      "Ġkil": 4146,
      "Ġinte": 4147,
      "ays": 4148,
      "ä»¿ä½Ľ": 4149,
      "è¡¨è¾¾å¼ı": 4150,
      "æıĲç¤º": 4151,
      "åĳĪ": 4152,
      "éĩĬæĶ¾": 4153,
      "èķ": 4154,
      "è¿Ĳè¾ĵ": 4155,
      "éĴ¥": 4156,
      "èģĮä½į": 4157,
      "Ġenergy": 4158,
      "çĳľ": 4159,
      "æĬķåħ¥": 4160,
      "æĭį": 4161,
      "ä»ª": 4162,
      "ove": 4163,
      "æķ°åĢ¼": 4164,
      "å¤ļåħĥ": 4165,
      "ç»ıè¿ĩ": 4166,
      "ory": 4167,
      "å¥½å¥ĩ": 4168,
      "Ð¸": 4169,
      "ä»¥åħ¶": 4170,
      "Ġdif": 4171,
      "å¼¹": 4172,
      "ä¸Ģå®ļçļĦ": 4173,
      "åı¤ä»£": 4174,
      "swer": 4175,
      "key": 4176,
      "æļĤ": 4177,
      "è§£åĨ³éĹ®é¢ĺçļĦ": 4178,
      "ĠIt": 4179,
      "ä¼Ļ": 4180,
      "æĸ°é²ľ": 4181,
      "min": 4182,
      "çļĦæł¸å¿ĥ": 4183,
      "ç®ĢåĮĸ": 4184,
      "Ġ\\)": 4185,
      "åħĥç´łçļĦ": 4186,
      "è¯Ńåı¥": 4187,
      "ç»Ļå®ļ": 4188,
      "åı¯ä»¥æĽ´": 4189,
      "\")": 4190,
      "ä¸ĢèĪ¬": 4191,
      "åı¯èĥ½å½±åĵį": 4192,
      "éļľç¢į": 4193,
      "å±ıå¹ķ": 4194,
      "çĳľä¼½": 4195,
      "ï½": 4196,
      "æĦıè§ģ": 4197,
      "('": 4198,
      "åıĮæĸ¹": 4199,
      "è¢ĭ": 4200,
      "åĲ§": 4201,
      "åı¯èĥ½å¯¹": 4202,
      "çĿ£": 4203,
      "çŀ": 4204,
      "çĥŁ": 4205,
      "ĠSt": 4206,
      "éķ¿æĹ¶éĹ´": 4207,
      "éĽĨä¸Ń": 4208,
      "éĶ»": 4209,
      "ä¸»åĬ¨": 4210,
      "åĻ¨çļĦ": 4211,
      "If": 4212,
      "Ġover": 4213,
      "è¯ģæį®": 4214,
      "åĴĮä¼ĺåĮĸ": 4215,
      "ating": 4216,
      "ç¼ĺ": 4217,
      "æĹ¶éĹ´ç®¡çĲĨ": 4218,
      "æ½ľåĬĽ": 4219,
      "æĩ": 4220,
      "ĊĊĠĠĠ": 4221,
      "æŃ»": 4222,
      "è¿ĩç¨ĭä¸ŃçļĦ": 4223,
      "ï½ŀ": 4224,
      "åħ¬åĽŃ": 4225,
      "æĦŁè°¢": 4226,
      "Ġits": 4227,
      "åĽ¢éĺŁåĲĪä½ľ": 4228,
      "çļĦå»ºè®®": 4229,
      "ç»Łä¸Ģ": 4230,
      "åħ³èģĶ": 4231,
      "çĶŁæĪĲçļĦ": 4232,
      "Ġone": 4233,
      "Ġ}": 4234,
      "Ġcount": 4235,
      "ength": 4236,
      "æĦıè¯ĨçļĦ": 4237,
      "æĺ¯çļĦ": 4238,
      "åı¦ä¸Ģä¸ª": 4239,
      "çĸ²": 4240,
      "Ġmy": 4241,
      "ra": 4242,
      "çļĦçĽ®æłĩ": 4243,
      "å®¶å±ħ": 4244,
      "çıį": 4245,
      "è¿ĲçĶ¨": 4246,
      "ased": 4247,
      "Ġfol": 4248,
      "çĶ¨æĢ§": 4249,
      "éĥ½ä¼ļ": 4250,
      "ãĤĭ": 4251,
      "æĵįä½ľç³»ç»Ł": 4252,
      "çĽ´åĪ°": 4253,
      "currency": 4254,
      "åĶ¯": 4255,
      "åĲĪæ³ķ": 4256,
      "ood": 4257,
      "èµĦäº§": 4258,
      "éĶ»çĤ¼": 4259,
      "olog": 4260,
      "åĳ¨åĽ´": 4261,
      "æĦŁåıĹåĪ°": 4262,
      "å®ŀä½ĵ": 4263,
      "è¿Ľç¨ĭ": 4264,
      "çĥ§": 4265,
      "ä¸ĸçķĮçļĦ": 4266,
      "imate": 4267,
      "äººå·¥æĻºèĥ½åľ¨åĮ»çĸĹ": 4268,
      "åħħçĶµ": 4269,
      "Ġ```": 4270,
      "Ġcalculate": 4271,
      "char": 4272,
      "åıªæľī": 4273,
      "åĢ¼å¾Ĺ": 4274,
      "çĶµè§Ĩ": 4275,
      "æľĿ": 4276,
      "åĩĨç¡®çļĦ": 4277,
      "æ´»åĬ¨çļĦ": 4278,
      "ç²Ĵ": 4279,
      "åħħè¶³": 4280,
      "sort": 4281,
      "éĢĤåºĶæĢ§": 4282,
      "èĢĮä¸Ķ": 4283,
      "åĮħå®¹": 4284,
      "Ġtyp": 4285,
      "Ġele": 4286,
      "åĬłåī§": 4287,
      "åĢ¾åĲĳ": 4288,
      "rt": 4289,
      "è²": 4290,
      "ors": 4291,
      "é«ĺçº§": 4292,
      "Ġfirst": 4293,
      "çļĦåľ°æĸ¹": 4294,
      "åħ±é¸£": 4295,
      "ç§¯ç´¯": 4296,
      "äººå£«": 4297,
      "é¤Ĳåİħ": 4298,
      "æºĲäºİ": 4299,
      "æ¶Īæģ¯": 4300,
      "boxed": 4301,
      "So": 4302,
      "çļĦåı¯": 4303,
      "èīºæľ¯åĪĽä½ľ": 4304,
      "Ġref": 4305,
      "çīĪæĿĥ": 4306,
      "äºīè®®": 4307,
      "ç´§å¼ł": 4308,
      "èĦı": 4309,
      "æĲº": 4310,
      "èĥľ": 4311,
      "åı¯ä»¥æł¹æį®": 4312,
      "é¥Ń": 4313,
      "åıªèĥ½": 4314,
      "ç¢İ": 4315,
      "Ġro": 4316,
      "æĵİ": 4317,
      "Ġcharacters": 4318,
      "çĻĮ": 4319,
      "æŃ§": 4320,
      "å±ĤéĿ¢": 4321,
      "Ġ==": 4322,
      "æ³¨æĦıåĬĽ": 4323,
      "èĿ": 4324,
      "äºĭé¡¹": 4325,
      "æŀģç«¯": 4326,
      "Ġmin": 4327,
      "æĹ¶éĹ´åĴĮ": 4328,
      "å¼ķæĵİ": 4329,
      "å®ŀéĻħä¸Ĭ": 4330,
      "ç§Ĵ": 4331,
      "ater": 4332,
      "ç»ıå¸¸": 4333,
      "å®ĥä»¬åľ¨": 4334,
      "**ï¼Į": 4335,
      "è°ľ": 4336,
      "æµªè´¹": 4337,
      "çī¹èī²": 4338,
      "æķ°ä¸º": 4339,
      "ä¼ĺåħĪçº§": 4340,
      "Ġadd": 4341,
      "æĬĢæľ¯çļĦåıĳå±ķ": 4342,
      "å¥ĸåĬ±": 4343,
      "æĭĽ": 4344,
      "æĥ³è±¡": 4345,
      "èĢĥè¯ķ": 4346,
      "ä»¥ä¸ĭæŃ¥éª¤": 4347,
      "Ġalso": 4348,
      "Ġfollow": 4349,
      "Ġ60": 4350,
      "ç¡®ä¿Ŀåľ¨": 4351,
      "æĥħæĦŁçļĦ": 4352,
      "æİ¥ä¸ĭæĿ¥": 4353,
      "åī²": 4354,
      "å¼ºåĮĸ": 4355,
      "Ġev": 4356,
      "words": 4357,
      "æ¹¿åº¦": 4358,
      "äºĨå¯¹": 4359,
      "æĦ¿æĦı": 4360,
      "è¿ħéĢŁ": 4361,
      "Ġdes": 4362,
      "å¿ĥçĲĨåŃ¦": 4363,
      "æ¹ĸ": 4364,
      "å®ģéĿĻ": 4365,
      "æµ®": 4366,
      "éķĩ": 4367,
      "å¢Ļ": 4368,
      "æĪĺçķ¥": 4369,
      "oud": 4370,
      "John": 4371,
      "çĽ¸ä¿¡": 4372,
      "ä¸ĢçĽ´": 4373,
      "ord": 4374,
      "ĠCh": 4375,
      "è®¾å¤ĩçļĦ": 4376,
      "Ġtwo": 4377,
      "åı£åĳ³": 4378,
      "ä¸Ģæł·": 4379,
      "åĩĿ": 4380,
      "AIåľ¨": 4381,
      "çķĮéĻĲ": 4382,
      "Ġem": 4383,
      "ource": 4384,
      "æĳĺè¦ģ": 4385,
      "Ġform": 4386,
      "æ±¤": 4387,
      "äººçī©": 4388,
      "Ġrange": 4389,
      "æĢ»æĺ¯": 4390,
      "é½": 4391,
      "åĪ°è¾¾": 4392,
      "å¹´çļĦ": 4393,
      "åĽ¾å½¢": 4394,
      "å°¤åħ¶æĺ¯åľ¨": 4395,
      "ual": 4396,
      "çļĦåıĺåĮĸ": 4397,
      "Con": 4398,
      "div": 4399,
      "ä¹Łåı¯ä»¥": 4400,
      "èĦĤèĤ": 4401,
      "62": 4402,
      "Ġsc": 4403,
      "èĦĤèĤª": 4404,
      "Ġthere": 4405,
      "å®«": 4406,
      "èĢĥèĻĳåĪ°": 4407,
      "å©ļ": 4408,
      "åī¯": 4409,
      "åĨįçĶŁ": 4410,
      "çĽŁ": 4411,
      "æıŃ": 4412,
      "èªī": 4413,
      "æŀ¶æŀĦ": 4414,
      "ä¼Ļä¼´": 4415,
      "Ġplease": 4416,
      "åĲįçļĦ": 4417,
      "å¹²æī°": 4418,
      "ãĥ¼": 4419,
      "ä¸ŃåĽ½çļĦ": 4420,
      "å®£ä¼ł": 4421,
      "Ġpos": 4422,
      "æ¢¦æĥ³": 4423,
      "èĩªä¿¡": 4424,
      "è¿Ļç¯ĩæĸĩç«ł": 4425,
      "åĩºçļĦ": 4426,
      "ðŁĺ": 4427,
      "essage": 4428,
      "ä¸ĸçºª": 4429,
      "ä½¿åħ¶": 4430,
      "Ġset": 4431,
      "ä½łå¯¹": 4432,
      "Ġstring": 4433,
      "Ġkm": 4434,
      "æķĻå¸Ī": 4435,
      "çļĦçĶµå½±": 4436,
      "æĿĥåĪ©": 4437,
      "æĤ£èĢħçļĦ": 4438,
      "SE": 4439,
      "ä½łå¦Ĥä½ķçľĭå¾ħ": 4440,
      "éĢĤéĩı": 4441,
      "Ġanswer": 4442,
      "è®²è¿°": 4443,
      "ber": 4444,
      "Ġ//": 4445,
      "è¡¥åħħ": 4446,
      "Ġsuch": 4447,
      "éĻĪ": 4448,
      "èĭı": 4449,
      "å¹¿æ³ĽçļĦ": 4450,
      "ç´¢å¼ķ": 4451,
      "ä½łä»¬": 4452,
      "ä¾Ŀèµĸäºİ": 4453,
      "ç»´åº¦": 4454,
      "Ġam": 4455,
      "elf": 4456,
      "CT": 4457,
      "ä»¥æıĲé«ĺ": 4458,
      "åģ¥èº«": 4459,
      "çŁ©éĺµ": 4460,
      "Ġè¾ĵåĩº": 4461,
      "åºĨ": 4462,
      "ä»¥éĢĤåºĶ": 4463,
      "éĢıæĺİåº¦": 4464,
      "åħŃ": 4465,
      "Ġtec": 4466,
      "ä½łæľĢè¿ĳ": 4467,
      "æİ¥åı£": 4468,
      "å¤ļçļĦ": 4469,
      "è½¬åĮĸä¸º": 4470,
      "æ´¾": 4471,
      "ç¾İä¸½": 4472,
      "04": 4473,
      "çĪ±å¥½": 4474,
      "ç³»ç»Łä¸Ń": 4475,
      "å±ķçİ°äºĨ": 4476,
      "ä»ĸäººçļĦ": 4477,
      "ä½łä¼ļ": 4478,
      "åĴĮå»ºè®®": 4479,
      "ä¸İäºº": 4480,
      "æĹ§": 4481,
      "èĤ¡ç¥¨": 4482,
      "ĠK": 4483,
      "ëĭ": 4484,
      "åĪĽæĸ°çļĦ": 4485,
      "ç§Ł": 4486,
      "èĢģå¸Ī": 4487,
      "åĪºæ¿Ģ": 4488,
      "Ġgr": 4489,
      "è¡ĮçļĦ": 4490,
      "å°¿": 4491,
      "æĸĩåĮĸçļĦ": 4492,
      "åħ±æľī": 4493,
      "ä¿Ŀåģ¥": 4494,
      "è¿Ĳç®Ĺ": 4495,
      "ä¸ĭè½½": 4496,
      "åľ°ä½į": 4497,
      "åĨ¬": 4498,
      "ä¼¼ä¹İ": 4499,
      "ract": 4500,
      "ç»ķ": 4501,
      "ä¾¿æį·": 4502,
      "æľīæĹ¶åĢĻ": 4503,
      "æĿ¥çľĭ": 4504,
      "æĺ¯ä¸ºäºĨ": 4505,
      "ãģĮ": 4506,
      "æķ£æŃ¥": 4507,
      "éĽĨåĲĪ": 4508,
      "2023": 4509,
      "å¤ĩä»½": 4510,
      "ç«ŀäºīåĬĽ": 4511,
      "æ¬¡æķ°": 4512,
      "å¤§å®¶": 4513,
      "æ»¡æĦıåº¦": 4514,
      "åģ¥åº·çļĦ": 4515,
      "æ¥¼": 4516,
      "éº¦": 4517,
      "NA": 4518,
      "å½¼": 4519,
      "ble": 4520,
      "Ġfe": 4521,
      "ç§ĳæĬĢçļĦ": 4522,
      "itle": 4523,
      "æ¡Į": 4524,
      "çļĦæ±ĩçİĩ": 4525,
      "å¼ĥ": 4526,
      "æĪ·å¤ĸ": 4527,
      "çĸ¼": 4528,
      "èŀįåħ¥": 4529,
      "ç»ĵæŀĦåĴĮ": 4530,
      "è¿ĺåı¯ä»¥": 4531,
      "å®łçī©": 4532,
      "æĪĳéľĢè¦ģ": 4533,
      "Ġwhat": 4534,
      "Ġshe": 4535,
      "éĢļçŁ¥": 4536,
      "å¤§åŀĭ": 4537,
      "æī¾åĩº": 4538,
      "py": 4539,
      "34": 4540,
      "åĮĢ": 4541,
      "é¹": 4542,
      "æµĭéĩı": 4543,
      "å»ºè®®æĤ¨": 4544,
      "Ġim": 4545,
      "Ġdis": 4546,
      "85": 4547,
      "æľ¬åľ°": 4548,
      "æıĲäº¤": 4549,
      "çŃīåĽłç´ł": 4550,
      "çĿĽ": 4551,
      "çļĦçĥŃ": 4552,
      "ize": 4553,
      "åĬłè½½": 4554,
      "æĽ´å¥½åľ°çĲĨè§£": 4555,
      "åĴĮæĮĳæĪĺ": 4556,
      "æĸĹ": 4557,
      "åľ¨ä¸Ģä¸ª": 4558,
      "Ġdiffere": 4559,
      "Ġyear": 4560,
      "Al": 4561,
      "æ³¨åĨĮ": 4562,
      "æĶ¶çĽĬ": 4563,
      "è´·æ¬¾": 4564,
      "è·ĥ": 4565,
      "JavaScript": 4566,
      "çļĦåħĥç´ł": 4567,
      "åĳĪçİ°": 4568,
      "çļĦæĮĳæĪĺ": 4569,
      "å½±åĥı": 4570,
      "äº¤æį¢": 4571,
      "èģĬå¤©": 4572,
      "æŃ£å¼ı": 4573,
      "ä½łèĥ½": 4574,
      "å¼ºåº¦": 4575,
      "ä¿ĿçķĻ": 4576,
      "æĢ»çļĦ": 4577,
      "è½»è½»": 4578,
      "éħ±": 4579,
      "åĽłä¸ºå®ĥ": 4580,
      "ç»Ļå®ļçļĦ": 4581,
      "ä½ľèĢħ": 4582,
      "Ġhis": 4583,
      "èĭĹ": 4584,
      "Ġthan": 4585,
      "çº¯": 4586,
      "åįĩçº§": 4587,
      "ç´§å¯Ĩ": 4588,
      "âĢĿï¼Ī": 4589,
      "ru": 4590,
      "åĲ¯åĬ¨": 4591,
      "é£ŁæĿĲ": 4592,
      "Ġ18": 4593,
      "çĽĳçĿ£": 4594,
      "è®ºæĸĩ": 4595,
      "ky": 4596,
      "èĩªè¡Į": 4597,
      "æĽ¿æį¢": 4598,
      "åįıåĬ©": 4599,
      "ä¹³": 4600,
      "åºĶçĶ¨çļĦ": 4601,
      "æķĻèĤ²åĴĮ": 4602,
      "æ®µèĲ½": 4603,
      "ä¸¤ç§į": 4604,
      "åĴĮæľĭåıĭ": 4605,
      "æĹ¥å¿Ĺ": 4606,
      "çľ¼çĿĽ": 4607,
      "ov": 4608,
      "Ġget": 4609,
      "åĴĮç»´æĬ¤": 4610,
      "ä¿¡çĶ¨": 4611,
      "æĤ¨å¥½": 4612,
      "æĽ¾": 4613,
      "å¯¼èĩ´çļĦ": 4614,
      "çķª": 4615,
      "è¯Ħè®º": 4616,
      "åĵªç§į": 4617,
      "els": 4618,
      "æĳ©": 4619,
      "èĮĦ": 4620,
      "è¯¢éĹ®": 4621,
      "çĶŁæ´»è´¨éĩı": 4622,
      "åľ¨è·¨æĸĩåĮĸ": 4623,
      "æīĺ": 4624,
      "Ġterm": 4625,
      "æıĲåĪ°çļĦ": 4626,
      "å·¨å¤§çļĦ": 4627,
      "åĴĮä½¿çĶ¨": 4628,
      "ä¼łè¾¾": 4629,
      "ç±»åĪ«": 4630,
      "éľĩ": 4631,
      "Ġvari": 4632,
      "æľ¬ä¹¦": 4633,
      "åĻª": 4634,
      "è°ĥæŁ¥": 4635,
      "æ°ıåº¦": 4636,
      "ix": 4637,
      "æĬĳ": 4638,
      "Ġcost": 4639,
      "å¤įæĿĤåº¦": 4640,
      "çĽĴ": 4641,
      "ãģ¯": 4642,
      "è¿Ł": 4643,
      "éľĢè¦ģåľ¨": 4644,
      "ä¸ľè¥¿": 4645,
      "æııç»ĺ": 4646,
      "åı¯ä»¥åĩıå°ĳ": 4647,
      "æĿĥçĽĬ": 4648,
      "az": 4649,
      "å¡ĳéĢł": 4650,
      "ãĢĤ\"": 4651,
      "Ġ50": 4652,
      "éĨ": 4653,
      "è¾ĥä½İ": 4654,
      "æĺ¯åŁºäºİ": 4655,
      "åħįçĸ«": 4656,
      "æĸĩåĮĸèĥĮæĻ¯": 4657,
      "åľ¨ä½¿çĶ¨": 4658,
      "åĵģè´¨": 4659,
      "èµĭäºĪ": 4660,
      "åĵªä¸ª": 4661,
      "ello": 4662,
      "oun": 4663,
      "gram": 4664,
      "its": 4665,
      "PU": 4666,
      "å½¢çļĦ": 4667,
      "çĶµè¯Ŀ": 4668,
      "çĲĨå¿µ": 4669,
      "æ½ľåľ¨çļĦ": 4670,
      "Ġhour": 4671,
      "sh": 4672,
      "Ġunder": 4673,
      "åĸ»": 4674,
      "ph": 4675,
      "å¯¹æ¯Ķ": 4676,
      "å¸®åĬ©çĶ¨æĪ·": 4677,
      "å®īåħ¨åĴĮ": 4678,
      "ner": 4679,
      "çī©æµģ": 4680,
      "ues": 4681,
      "ãĢĲ": 4682,
      "å°ºå¯¸": 4683,
      "å¤ªç©º": 4684,
      "Ð½": 4685,
      "æ±ģ": 4686,
      "ãĢĳ": 4687,
      "èĢ³": 4688,
      "å¤ļæķ°": 4689,
      "ute": 4690,
      "åħ¬æŃ£": 4691,
      "ict": 4692,
      "å¥³æĢ§": 4693,
      "ä½łæĺ¯åĲ¦": 4694,
      "eg": 4695,
      "çļĦè¡Įä¸º": 4696,
      "ä½¿çĶ¨äºĨ": 4697,
      "æ¯ıä¸Ģä¸ª": 4698,
      "æīĢåľ¨": 4699,
      "log": 4700,
      "çŃĽ": 4701,
      "çľĭçľĭ": 4702,
      "è¿ģ": 4703,
      "å¹³çŃī": 4704,
      "çİ°æľī": 4705,
      "è®¤è¯ģ": 4706,
      "å¹¶éĿŀ": 4707,
      "Ġrel": 4708,
      "set": 4709,
      "åĪ¸": 4710,
      "åĽ¢éĺŁçļĦ": 4711,
      "count": 4712,
      "å±ħæ°ĳ": 4713,
      "åĽ¾ä¹¦": 4714,
      "äººçĶŁ": 4715,
      "å¦Ī": 4716,
      "OS": 4717,
      "éª¨": 4718,
      "åĮĸåĴĮ": 4719,
      "åĲĳéĩı": 4720,
      "erson": 4721,
      "å°½åĬĽ": 4722,
      "èĴ¸": 4723,
      "åĶ¯ä¸Ģ": 4724,
      "æıĲä¾Ľä¸Ģä¸ª": 4725,
      "ä¸īè§Ĵ": 4726,
      "è¿Ļåı¯èĥ½åĮħæĭ¬": 4727,
      "åĸĿ": 4728,
      "çļĦæķ°éĩı": 4729,
      "ä¸»è¦ģä½ĵçİ°åľ¨": 4730,
      "æĹ¶åħī": 4731,
      "17": 4732,
      "åĲ¸æĶ¶": 4733,
      "åģ¥åº·çĬ¶åĨµ": 4734,
      "éĽħ": 4735,
      "å¿«ä¹Ĳ": 4736,
      "ern": 4737,
      "åĨįæ¬¡": 4738,
      "å¤§è§Ħæ¨¡": 4739,
      "rench": 4740,
      "åħħæ»¡äºĨ": 4741,
      "Tr": 4742,
      "æ°Ķæ¸©": 4743,
      "å¤§çº¦": 4744,
      "æĢİæł·": 4745,
      "åı¦ä¸Ģ": 4746,
      "æĹ¥æľ¬": 4747,
      "åĲĪçĲĨçļĦ": 4748,
      "éĺ¿éĩĮ": 4749,
      "ãģ§": 4750,
      "å¤§æķ°æį®": 4751,
      "çļĦåħ³ç³»": 4752,
      "éĤĢ": 4753,
      "SO": 4754,
      "æĹłéĻĲ": 4755,
      "åı¯èĥ½ä¸İ": 4756,
      "éĢĶå¾Ħ": 4757,
      "æ²¿": 4758,
      "Google": 4759,
      "åĩºè¡Į": 4760,
      "çģµæĦŁ": 4761,
      "éģĵè·¯": 4762,
      "duct": 4763,
      "ï¼Į\"": 4764,
      "çļĦåħī": 4765,
      "æĢ§åĪ«": 4766,
      "Ġgiven": 4767,
      "success": 4768,
      "å¼ķçĶ¨": 4769,
      "çŃīçŃī": 4770,
      "äººéĻħåħ³ç³»": 4771,
      "éĶħ": 4772,
      "ĊĊĠĠ": 4773,
      "ãģª": 4774,
      "çģµæ´»æĢ§": 4775,
      "ç½ª": 4776,
      "tem": 4777,
      "çļĦæľºä¼ļ": 4778,
      "ä»¥ä¸ĭæĺ¯ä¸ĢäºĽå»ºè®®": 4779,
      "å®¤åĨħ": 4780,
      "è¯ĹæŃĮ": 4781,
      "ä¾ĽåºĶéĵ¾": 4782,
      "ç¬¬ä¸Ģä¸ª": 4783,
      "éļĲèĹı": 4784,
      "oint": 4785,
      "ĠSp": 4786,
      "ç»¼åĲĪèĢĥèĻĳ": 4787,
      "éŃĶæ³ķ": 4788,
      "ä½ĵèĤ²": 4789,
      "Ġrep": 4790,
      "åĢĭ": 4791,
      "åı¯ä»¥ä»İ": 4792,
      "æĸ¤": 4793,
      "çŁ¿": 4794,
      "çĶŁæĪĲä¸Ģ": 4795,
      "èĮĥåĽ´åĨħ": 4796,
      "åĸľæ¬¢çļĦ": 4797,
      "ert": 4798,
      "Ġimport": 4799,
      "ided": 4800,
      "æµģéĩı": 4801,
      "åĢ¾åĲ¬": 4802,
      "å¯¿": 4803,
      "åħĪè¿Ľ": 4804,
      "çī©ä½ĵ": 4805,
      "åı¯èĥ½åĮħæĭ¬": 4806,
      "æ¢¯": 4807,
      "åİĺ": 4808,
      "ĠHere": 4809,
      "ows": 4810,
      "æĢ»çļĦæĿ¥è¯´": 4811,
      "ä¿ĥè¿ĽäºĨ": 4812,
      "':": 4813,
      "è®¾è®¡åĴĮ": 4814,
      "åĽºå®ļ": 4815,
      "sqrt": 4816,
      "è¿ĻéĢļå¸¸": 4817,
      "ä¸ĵéĹ¨": 4818,
      "ä¹Ĳè¶£": 4819,
      "æĪĸä¸į": 4820,
      "çļĦéĢīæĭ©": 4821,
      "ä»¥ä¸ĭåĩłç§į": 4822,
      "æĮģç»ŃçļĦ": 4823,
      "Ġkilomet": 4824,
      "atus": 4825,
      "é¢ĳç¹ģ": 4826,
      "ãĢĤ**": 4827,
      "ä¸įä»ħä»ħæĺ¯": 4828,
      "ãģ¾ãģĻ": 4829,
      "çĴ": 4830,
      "ines": 4831,
      "Ġmight": 4832,
      "èī¯å¥½": 4833,
      "åĮħè£ħ": 4834,
      "åĴĮå®īåħ¨": 4835,
      "ç³ķ": 4836,
      "As": 4837,
      "éªĳ": 4838,
      "ten": 4839,
      "éŀ": 4840,
      "Ñģ": 4841,
      "æĹ¶åĪ»": 4842,
      "au": 4843,
      "ĠTo": 4844,
      "inal": 4845,
      "æĪĳçļĦåŃĺåľ¨": 4846,
      "åĩĨç¡®æĢ§åĴĮ": 4847,
      "æķ´åĲĪ": 4848,
      "çŁŃæľŁ": 4849,
      "å·¥èīº": 4850,
      "æķ°åĪĹ": 4851,
      "è¡¨æł¼": 4852,
      "åľ¨éĿ¢å¯¹": 4853,
      "åĩºäºĨ": 4854,
      "åľ°çĲĨ": 4855,
      "å±ķç¤ºäºĨ": 4856,
      "ative": 4857,
      "åı¯ä»¥å°Ŀè¯ķ": 4858,
      "Ġ16": 4859,
      "æĻ®éģį": 4860,
      "åĿĩåĮĢ": 4861,
      "è·¯çº¿": 4862,
      "çľŁæŃ£çļĦ": 4863,
      "led": 4864,
      "++": 4865,
      "çļĦåĨ³çŃĸ": 4866,
      "çĺ": 4867,
      "åĨħåľ¨": 4868,
      "æ°Ķä½ĵ": 4869,
      "Ġbo": 4870,
      "æłĩå¿Ĺ": 4871,
      "éģĹä¼ł": 4872,
      "Ġmat": 4873,
      "å¡Ķ": 4874,
      "è½¨": 4875,
      "ough": 4876,
      "lish": 4877,
      "ãģ¨": 4878,
      "çļĦè¾¹çķĮ": 4879,
      "çľĭèµ·æĿ¥": 4880,
      "æĬķèµĦèĢħ": 4881,
      "çĤ¹çļĦ": 4882,
      "å®ľ": 4883,
      "refore": 4884,
      "ç§įæ¤į": 4885,
      "hes": 4886,
      "è£Ĥ": 4887,
      "è¿ĩäºİ": 4888,
      "å¤«": 4889,
      "ä¼łç»ŁçļĦ": 4890,
      "Ġdef": 4891,
      "éĩĳå±ŀ": 4892,
      "Ġthey": 4893,
      "æĿ¡æ¬¾": 4894,
      "æĿİæĺİ": 4895,
      "åĮºåĪ«": 4896,
      "åı¤èĢģ": 4897,
      "æ²»çĸĹæĸ¹æ¡Ī": 4898,
      "è¡¨æ¼Ķ": 4899,
      "éĤĢè¯·": 4900,
      "å¿ł": 4901,
      "çĽ´è§Ĥ": 4902,
      "æĬ½è±¡": 4903,
      "Ġtemperature": 4904,
      "çļĦåĲĹ": 4905,
      "æĪĸä½¿çĶ¨": 4906,
      "ä¼łæĦŁ": 4907,
      "ç§ĳå¹»": 4908,
      "Ġmet": 4909,
      "Ġkilometers": 4910,
      "åıī": 4911,
      "ä¸¤äººçļĦ": 4912,
      "åīª": 4913,
      "åĨħå®¹çļĦ": 4914,
      "ah": 4915,
      "ink": 4916,
      "äººå·¥æĻºèĥ½ä¼¦çĲĨåľ¨è·¨æĸĩåĮĸ": 4917,
      "tern": 4918,
      "umn": 4919,
      "éĥģ": 4920,
      "èĬĤèĥ½": 4921,
      "è¹": 4922,
      "æ³Ħéľ²": 4923,
      "å¤įåĪ¶": 4924,
      "Ġacc": 4925,
      "ä¸İäººç±»": 4926,
      "æ£ĭ": 4927,
      "çķªèĮĦ": 4928,
      "Hello": 4929,
      "æĬĢæľ¯åĪĽæĸ°": 4930,
      "æĺİç¡®çļĦ": 4931,
      "ask": 4932,
      "bs": 4933,
      "æİĴåĪĹ": 4934,
      "ç»ĻäºĪ": 4935,
      "å¤ªéĺ³èĥ½": 4936,
      "ä¹Ļ": 4937,
      "èħĲ": 4938,
      "æĹ¥å¸¸çĶŁæ´»ä¸Ń": 4939,
      "èĬĤæĹ¥": 4940,
      "åıĺéĿ©": 4941,
      "åĢĴæµģ": 4942,
      "èĪ¹": 4943,
      "åľºåĲĪ": 4944,
      "åı¯ä»¥ä¸º": 4945,
      "Ġserv": 4946,
      "%ï¼Į": 4947,
      "åıł": 4948,
      "åĴĮåħ¶ä»ĸ": 4949,
      "Ġwant": 4950,
      "è¾ĥä¸º": 4951,
      "æ¢°": 4952,
      "å¼Ģå¿ĥ": 4953,
      "ä¼¤å®³": 4954,
      "datetime": 4955,
      "Ġname": 4956,
      "åľ¨çī¹å®ļ": 4957,
      "çĪ±æĥħ": 4958,
      "æıĲåıĸåĩº": 4959,
      "Ġmultipl": 4960,
      "å¤§å¤ļæķ°": 4961,
      "æ®ĸ": 4962,
      "çļĦä»£çłģ": 4963,
      "amp": 4964,
      "æŃ¦": 4965,
      "åĲĮä¸Ģ": 4966,
      "åĴĮèµĦæºĲ": 4967,
      "js": 4968,
      "åľ°åĮºçļĦ": 4969,
      "ek": 4970,
      "çĤĴ": 4971,
      "AT": 4972,
      "è´¸": 4973,
      "åĩºåıĳ": 4974,
      "ä½ĵéĩį": 4975,
      "éĹª": 4976,
      "è¿Ľè¡Įè°ĥæķ´": 4977,
      "æİĪæĿĥ": 4978,
      "Ġsim": 4979,
      "éĢīæĭ©ä¸Ģä¸ª": 4980,
      "ä¾ĭåŃĲä¸Ń": 4981,
      "Ġsec": 4982,
      "çļĦåĢ¼": 4983,
      "è®¤åĲĮ": 4984,
      "')": 4985,
      "çº¤": 4986,
      "Ġcontext": 4987,
      "èģĮä¸ļåıĳå±ķ": 4988,
      "Ð¾Ð": 4989,
      "æľ¯è¯Ń": 4990,
      "This": 4991,
      "è¿ĩæ»¤": 4992,
      "åħ³éĹŃ": 4993,
      "idity": 4994,
      "éģĹäº§": 4995,
      "åħĭæľį": 4996,
      "Ġ\\,": 4997,
      "éĽ·": 4998,
      "Ġdoes": 4999,
      "____": 5000,
      "éĢĴå½Ĵ": 5001,
      "èģĺ": 5002,
      "å¥ĳ": 5003,
      "ise": 5004,
      "çĶµåŃĲéĤ®ä»¶": 5005,
      "æķ¬": 5006,
      "Pythonä¸Ń": 5007,
      "æ±Ł": 5008,
      "éĺ´": 5009,
      "èīºæľ¯å®¶": 5010,
      "æĬĢæľ¯åıĳå±ķ": 5011,
      "å®ŀä¾ĭ": 5012,
      "ä»·åĢ¼çļĦ": 5013,
      "æķ´çĲĨ": 5014,
      "å¦Ĥæŀľä½łæľī": 5015,
      "çļĦåİŁåĽł": 5016,
      "ç³Ĭ": 5017,
      "ote": 5018,
      "Ġ$\\": 5019,
      "çĲĨæĥ³": 5020,
      "æľĢå¤§çļĦ": 5021,
      "èĥ½å¸®åĬ©ä½ł": 5022,
      "ä¸İæĸĩåĮĸ": 5023,
      "æµıè§ĪåĻ¨": 5024,
      "çŁ¥è¯ĨçļĦ": 5025,
      "åĲ«æľī": 5026,
      "ç§Ģ": 5027,
      "ä¸¤èĢħ": 5028,
      "åħ¨éĿ¢çļĦ": 5029,
      "æ¦": 5030,
      "mer": 5031,
      "IP": 5032,
      "éĩįéĩı": 5033,
      "çĸ²åĬ³": 5034,
      "åı£æĦŁ": 5035,
      "æ¶µçĽĸ": 5036,
      "çĶ¨éĢĶ": 5037,
      "éĻ·": 5038,
      "åįıåĲĮ": 5039,
      "å®¢æľį": 5040,
      "ä¼ĺçĤ¹": 5041,
      "çļĦæĻºèĥ½": 5042,
      "ility": 5043,
      "ystem": 5044,
      "æĺİæĺ¾": 5045,
      "å³°": 5046,
      "åĿĽ": 5047,
      "ä¸Ĭåįĩ": 5048,
      "åİĺç±³": 5049,
      "é¡¿": 5050,
      "è´ŁéĿ¢å½±åĵį": 5051,
      "ower": 5052,
      "è¡Ĺ": 5053,
      "æĻ¨": 5054,
      "ãģĦ": 5055,
      "åı¯ä»¥æľīæķĪ": 5056,
      "æī£": 5057,
      "pro": 5058,
      "åı¯åĨįçĶŁ": 5059,
      "åĴĮéľĢæ±Ĥ": 5060,
      "æĦıå¤ĸ": 5061,
      "åĬ¨çĶ»": 5062,
      "åĽ½å®¶çļĦ": 5063,
      "éĢļå¸¸åľ¨": 5064,
      "ç±»çļĦ": 5065,
      "Ġwork": 5066,
      "æµ¸": 5067,
      "å¼ºè°ĥäºĨ": 5068,
      "å®ļæľŁè¿Ľè¡Į": 5069,
      "],": 5070,
      "æĪĲç»©": 5071,
      "åħ¬å¹³æĢ§": 5072,
      "è·Łè¸ª": 5073,
      "Ġåĩ½æķ°": 5074,
      "tive": 5075,
      "ä½łæľīæ²¡æľīæĥ³è¿ĩ": 5076,
      "å®ĮåĸĦ": 5077,
      "umidity": 5078,
      "RO": 5079,
      "ww": 5080,
      "çĸ¼çĹĽ": 5081,
      "æķ°æį®å¤ĦçĲĨ": 5082,
      "ible": 5083,
      "Ġrec": 5084,
      "ãĢĭï¼Ī": 5085,
      "Ġä¸ª": 5086,
      "Ġelse": 5087,
      "çħ§çīĩ": 5088,
      "å®¹åĻ¨": 5089,
      "å¤Ħäºİ": 5090,
      "Ġtoday": 5091,
      "Ġlet": 5092,
      "éĿŀå¸¸éĩįè¦ģ": 5093,
      "åĴĮåŃ¦ä¹ł": 5094,
      "ator": 5095,
      "ä¸įå¿ħè¦ģçļĦ": 5096,
      "own": 5097,
      "ä½łè®¤ä¸º": 5098,
      "ä½ĵç§¯": 5099,
      "å¤±åİ»": 5100,
      "ne": 5101,
      "¡èĲ": 5102,
      "æľµ": 5103,
      "sist": 5104,
      "åĴĮæĥħæĦŁ": 5105,
      "æĮģç»ŃåŃ¦ä¹ł": 5106,
      "è®¯": 5107,
      "ç»Ħä»¶": 5108,
      "åĪ¶åº¦": 5109,
      "å®¢è§Ĥ": 5110,
      "ä¸ĵä¸ļäººå£«": 5111,
      "Ġrem": 5112,
      "èĻļæĭŁçİ°å®ŀ": 5113,
      "çº¿ç¨ĭ": 5114,
      "ä¼łæĦŁåĻ¨": 5115,
      "è²Į": 5116,
      "é¥¼": 5117,
      "èµĦæĸĻ": 5118,
      "æĿ¥çļĦ": 5119,
      "Ġ$$": 5120,
      "á»": 5121,
      "æĦī": 5122,
      "è´Ŀ": 5123,
      "å¤§åľ°": 5124,
      "data": 5125,
      "éĩįçĤ¹": 5126,
      "ðŁĺĬ": 5127,
      "aph": 5128,
      "äºĨä¸ĢäºĽ": 5129,
      "ä¸ªäººæĪĲéķ¿": 5130,
      "çĸ«èĭĹ": 5131,
      "^{": 5132,
      "çĪĨ": 5133,
      "è¿ĻäºĽä¿¡æģ¯": 5134,
      "åŃ¤çĭ¬": 5135,
      "Ã©": 5136,
      "æĻºèĥ½å®¶å±ħ": 5137,
      "ç»ıçĲĨ": 5138,
      "åĬ¨æľº": 5139,
      "ÑĢ": 5140,
      "æµģçķħ": 5141,
      "åĹ": 5142,
      "Ġint": 5143,
      "çĽ¾": 5144,
      "ars": 5145,
      "å®Ĺ": 5146,
      "çŃīæĬĢæľ¯": 5147,
      "æıĲéĹ®": 5148,
      "Ġthese": 5149,
      "æĺ¯éĢļè¿ĩ": 5150,
      "stand": 5151,
      "æĻ®éĢļ": 5152,
      "å¯¹æīĭ": 5153,
      "å°ıçļĦ": 5154,
      "cd": 5155,
      "Ġpart": 5156,
      "TP": 5157,
      "æ¼Ķè®²": 5158,
      "æ¾": 5159,
      "æĹ©æľŁ": 5160,
      "èĦī": 5161,
      "éĿŀå¸¸éĩįè¦ģçļĦ": 5162,
      "Ġsome": 5163,
      "ä»¥åıĬå¦Ĥä½ķ": 5164,
      "ai": 5165,
      "è¿Ļç±»": 5166,
      "åĪ·": 5167,
      "åľĪ": 5168,
      "Ġ**ãĢĬ": 5169,
      "åĴĮæľįåĬ¡": 5170,
      "æĿ°": 5171,
      "åķĬ": 5172,
      "åĪ°çļĦ": 5173,
      "è¯¯è§£": 5174,
      "è¿Ļæ®µä»£çłģ": 5175,
      "çŃīéĹ®é¢ĺ": 5176,
      "å¿§": 5177,
      "çī¹åĪ«æĺ¯åľ¨": 5178,
      "æıĴåħ¥": 5179,
      "Ġtechn": 5180,
      "çħ®": 5181,
      "åºĵåŃĺ": 5182,
      "è¿Ļä¸¤ä¸ª": 5183,
      "ery": 5184,
      "Ġwhere": 5185,
      "æĽ´å®¹æĺĵ": 5186,
      "è´¸æĺĵ": 5187,
      "zone": 5188,
      "ä¹Łæľī": 5189,
      "æĴ°": 5190,
      "éľĢè¦ģæ³¨æĦı": 5191,
      "å¤§æ°Ķ": 5192,
      "è¾ĥé«ĺ": 5193,
      "ĠAI": 5194,
      "ä¸įéľĢè¦ģ": 5195,
      "åīįæĻ¯": 5196,
      "éĩįå¤§": 5197,
      "22": 5198,
      "ä½Ĩåħ¶": 5199,
      "Ġcould": 5200,
      "äººæľº": 5201,
      "çº¹": 5202,
      "åī©ä½Ļ": 5203,
      "çĶŁæ´»ä¸Ń": 5204,
      "ä¸İä¼¦çĲĨ": 5205,
      "loc": 5206,
      "status": 5207,
      "çī©ç§į": 5208,
      "èĥ½æıĲä¾Ľ": 5209,
      "å®Įç¾İ": 5210,
      "æĭĵå±ķ": 5211,
      "Ġ14": 5212,
      "ude": 5213,
      "æĽ´æľīæķĪåľ°": 5214,
      "ade": 5215,
      "åĪĹè¡¨ä¸Ń": 5216,
      "}\\)": 5217,
      "enti": 5218,
      "ç½ĳé¡µ": 5219,
      "åľ¨è¿Ļä¸ªä¾ĭåŃĲä¸Ń": 5220,
      "æŃ£éĿ¢": 5221,
      "çļĦäº§åĵģ": 5222,
      "äºĭæķħ": 5223,
      "ele": 5224,
      "ç¼ĵåŃĺ": 5225,
      "æī«": 5226,
      "çĻ»å½ķ": 5227,
      "åı¯ä»¥å°Ĩ": 5228,
      "Ġpe": 5229,
      "å®¶éķ¿": 5230,
      "åİ»éĻ¤": 5231,
      "èĲ¨": 5232,
      "sc": 5233,
      "Ġequation": 5234,
      "åĬŀåħ¬": 5235,
      "ails": 5236,
      "ä¼¸": 5237,
      "è¡ĮæĺŁ": 5238,
      "arget": 5239,
      "åģ¿": 5240,
      "cess": 5241,
      "è½´": 5242,
      "éŀĭ": 5243,
      "å½¼æŃ¤": 5244,
      "æıŃç¤º": 5245,
      "è¯ĨåĪ«åĴĮ": 5246,
      "çĽ®å½ķ": 5247,
      "90": 5248,
      "æİ¥è¿ĳ": 5249,
      "ä¸Ģèĩ´æĢ§": 5250,
      "ç½ļ": 5251,
      "æĪª": 5252,
      "çī©èģĶç½ĳ": 5253,
      "è¡¨çİ°åĩº": 5254,
      "éĢļè¿ĩåĪĨæŀĲ": 5255,
      "æĪĳä»¬åºĶè¯¥": 5256,
      "çİ¯èĬĤ": 5257,
      "éĢļå¸¸æĮĩçļĦæĺ¯": 5258,
      "åĩī": 5259,
      "å®ĥä¸įä»ħ": 5260,
      "Ġgenerate": 5261,
      "Ġph": 5262,
      "ys": 5263,
      "æĪĳæĹłæ³ķçĽ´æİ¥": 5264,
      "How": 5265,
      "ä¹¡": 5266,
      "æĪĸæľįåĬ¡": 5267,
      "å¯¼èĪª": 5268,
      "æī¿æĭħ": 5269,
      "å¤ļå°ĳä¸ª": 5270,
      "å¡ŀ": 5271,
      "æĤī": 5272,
      "71": 5273,
      "èĤº": 5274,
      "åĴĮåıĳå±ķ": 5275,
      "ius": 5276,
      "è¾¹ç¼ĺ": 5277,
      "ç»ĦæĪĲéĥ¨åĪĨ": 5278,
      "çĶŁæ´»ä¸ŃçļĦ": 5279,
      "éĢĨ": 5280,
      "æĪĳä»¬å°Ĩ": 5281,
      "Ġconvert": 5282,
      "åĴĮæĹ¶éĹ´": 5283,
      "å½Ĵå±ŀ": 5284,
      "éĥ½åľ¨": 5285,
      "æ½®": 5286,
      "ä»Ķ": 5287,
      "ĠâĨĴ": 5288,
      "ä»İèĢĮæıĲé«ĺ": 5289,
      "å¹¶å°Ĩ": 5290,
      "ãĢĭï¼Į": 5291,
      "åıªæĺ¯": 5292,
      "çļĦæ´»åĬ¨": 5293,
      "å¹¶æıĲä¾Ľ": 5294,
      "åĽŀå½Ĵ": 5295,
      "åı¯ä»¥è¢«": 5296,
      "Ġpre": 5297,
      "å¿ĥçģµ": 5298,
      "å¾Īå¥½": 5299,
      "è½¬åŀĭ": 5300,
      "å§Ĩ": 5301,
      "ĠWe": 5302,
      "05": 5303,
      "éĢĤåĲĪèĩªå·±çļĦ": 5304,
      "Ġval": 5305,
      "æŃĮæĽ²": 5306,
      "å¹½": 5307,
      "éģ¿åħįä½¿çĶ¨": 5308,
      "value": 5309,
      "æ·±åħ¥çļĦ": 5310,
      "title": 5311,
      "åŃķ": 5312,
      "è®°å¾Ĺ": 5313,
      "è°ģ": 5314,
      "æł·æľ¬": 5315,
      "åĮºåĪĨ": 5316,
      "å¿½è§Ĩ": 5317,
      "æĬĢæľ¯çļĦä¸įæĸŃ": 5318,
      "ç®Ĺæ³ķåģıè§ģ": 5319,
      "èĥ½åĬĽåĴĮ": 5320,
      "ä½¿çĶ¨Python": 5321,
      "ä¸¢": 5322,
      "åłĨ": 5323,
      "æĽ´æĶ¹": 5324,
      "Ġdec": 5325,
      "ç¡®ä¿Ŀä½łçļĦ": 5326,
      "åĪĨåŃĲ": 5327,
      "ç¯®": 5328,
      "alse": 5329,
      "val": 5330,
      "ons": 5331,
      "æ·¡": 5332,
      "Ġ11": 5333,
      "æĥħèĬĤ": 5334,
      "åĢ¾åĲĳäºİ": 5335,
      "äºĳè®¡ç®Ĺ": 5336,
      "æ°´çļĦ": 5337,
      "ä¿¡æģ¯åĴĮ": 5338,
      "åŃ©åŃĲçļĦ": 5339,
      "TC": 5340,
      "aus": 5341,
      "Web": 5342,
      "æ¬£": 5343,
      "word": 5344,
      "çļĦå¸®åĬ©": 5345,
      "æľºéģĩ": 5346,
      "çŀ¬": 5347,
      "gre": 5348,
      "åķĨåĬ¡": 5349,
      "éŁ³é¢ĳ": 5350,
      "åĭĩæ°Ķ": 5351,
      "æĪĳæ²¡æľī": 5352,
      "ĠAl": 5353,
      "éĴ®": 5354,
      "è¶ħè¶Ĭ": 5355,
      "500": 5356,
      "è´¨éĩıåĴĮ": 5357,
      "æľĹ": 5358,
      "å½ĵåīįçļĦ": 5359,
      "verage": 5360,
      "æĽ´ä¸º": 5361,
      "è§Ĥçľĭ": 5362,
      "Ġques": 5363,
      "Ġworld": 5364,
      "ä¸ºä½ł": 5365,
      "æĪĲçĨŁ": 5366,
      "æ¸ħæĻ°çļĦ": 5367,
      "å¤ľæĻļ": 5368,
      "åĩºåı£": 5369,
      "æĬĢèĥ½åĴĮ": 5370,
      "Ġwhen": 5371,
      "å¿łè¯ļ": 5372,
      "å¢ŀåĬłäºĨ": 5373,
      "æĸ¹æ³ķæĿ¥": 5374,
      "æī©å¤§": 5375,
      "èį·": 5376,
      "èĩªæĪĳè®¤çŁ¥": 5377,
      "It": 5378,
      "ä¹±": 5379,
      "å§ĭç»Ī": 5380,
      "Ġher": 5381,
      "ä»¥åĩıå°ĳ": 5382,
      "é¢ĨåŁŁä¸Ń": 5383,
      "ains": 5384,
      "æĪ´": 5385,
      "åŁºç¡Ģè®¾æĸ½": 5386,
      "AIçļĦ": 5387,
      "rite": 5388,
      "ĠEng": 5389,
      "indows": 5390,
      "æ¤Ĵ": 5391,
      "å®ĩå®ĻçļĦ": 5392,
      "ify": 5393,
      "ç¦ģ": 5394,
      "æĹħç¨ĭ": 5395,
      "è©": 5396,
      "çļĦéķ¿åº¦": 5397,
      "è¿ĺéľĢè¦ģ": 5398,
      "æľºæ¢°": 5399,
      "æıĲä¾Ľå¸®åĬ©": 5400,
      "åľ¨Pythonä¸Ń": 5401,
      "åħ¬å¼Ģ": 5402,
      "Ġdon": 5403,
      "å¯¹äººæ°ĳå¸ģ": 5404,
      "æĶ¯æĮģåĴĮ": 5405,
      "å§ĵ": 5406,
      "cre": 5407,
      "èĥĥ": 5408,
      "æı´": 5409,
      "ä¸įç¡®å®ļæĢ§": 5410,
      "Ġrenew": 5411,
      "çŁĽ": 5412,
      "ä¸¤äººçļĦå¯¹è¯ĿåĨħå®¹": 5413,
      "åıĺå¾ĹæĽ´åĬł": 5414,
      "bu": 5415,
      "æķĪåºĶ": 5416,
      "è´Łæĭħ": 5417,
      "AP": 5418,
      "å¦ĤæŀľéľĢè¦ģ": 5419,
      "Ġtranslate": 5420,
      "rr": 5421,
      "æĮīéĴ®": 5422,
      "éĽ¾": 5423,
      "åĲĥäºĨ": 5424,
      "1000": 5425,
      "message": 5426,
      "èº«å¿ĥ": 5427,
      "èį£": 5428,
      "æĭ¿": 5429,
      "lop": 5430,
      "æī¹åĪ¤": 5431,
      "dex": 5432,
      "æ³¨æĦıäºĭé¡¹": 5433,
      "æĤ¨éľĢè¦ģ": 5434,
      "çļĦèĩªçĦ¶": 5435,
      "å´": 5436,
      "çļĦæķ°åŃĹ": 5437,
      "èĽĭç³ķ": 5438,
      "Ex": 5439,
      "äººå·¥æĻºèĥ½ä¼¦çĲĨåľ¨è·¨æĸĩåĮĸè¯Ńå¢ĥ": 5440,
      "çº¤ç»´": 5441,
      "ç®Ĺæ³ķçļĦ": 5442,
      "pr": 5443,
      "ç»Ļä½ł": 5444,
      "åħīçº¿": 5445,
      "Ġmultiplied": 5446,
      "æ£Ĵ": 5447,
      "éĵº": 5448,
      "åı¯åĨįçĶŁèĥ½æºĲ": 5449,
      "æĦıè¯ĨåĪ°": 5450,
      "åĬ³åĬ¨": 5451,
      "åĪĽä¸ļ": 5452,
      "ç¾İåĳ³": 5453,
      "input": 5454,
      "æĽ´é«ĺçļĦ": 5455,
      "çŁĽçĽ¾": 5456,
      "è®ºåĿĽ": 5457,
      "è®¾è®¡çļĦ": 5458,
      "è¯·æł¹æį®": 5459,
      "æłĩè®°": 5460,
      "å®¡è®¡": 5461,
      "çĽ¸åĲĮçļĦ": 5462,
      "åģľæŃ¢": 5463,
      "çīĽå¥¶": 5464,
      "ST": 5465,
      "é¢Ī": 5466,
      "å±ĭ": 5467,
      "è¿Ļä¸ªåĩ½æķ°": 5468,
      "æİ¢éĻ©": 5469,
      "io": 5470,
      "ä¾Ŀæį®": 5471,
      "Ġmax": 5472,
      "åĪ©çİĩ": 5473,
      "å¹¶åıĳ": 5474,
      "éĤ»": 5475,
      "èµŀ": 5476,
      "é¡ºåĪ©": 5477,
      "Ġthem": 5478,
      "Ġprogram": 5479,
      "çµ": 5480,
      "åĨĴéĻ©": 5481,
      "åŃ¦çĶŁçļĦ": 5482,
      "åĪĹåĩº": 5483,
      "èĨľ": 5484,
      "Ġinclud": 5485,
      "que": 5486,
      "åħ¬æĸ¤": 5487,
      "æĽ´å¤įæĿĤçļĦ": 5488,
      "æĪĳä»¬å¯¹": 5489,
      "çļĦä½įç½®": 5490,
      "æįī": 5491,
      "åı¯éĿłæĢ§": 5492,
      "å¸®ä½ł": 5493,
      "å»¶è¿Ł": 5494,
      "ä»£çłģçļĦ": 5495,
      "è¿ĩå¾ĹæĢİä¹Īæł·": 5496,
      "rate": 5497,
      "å¦Ĥä½ķå¹³è¡¡": 5498,
      "very": 5499,
      "çĶŁçĲĨ": 5500,
      "æĥ³èģĬ": 5501,
      "åĲĮäºĭ": 5502,
      "åľ°åĽ¾": 5503,
      "ç¬¬ä¸īæĸ¹": 5504,
      "å±ĢéĻĲ": 5505,
      "èıľåįķ": 5506,
      "åıĸä»£": 5507,
      "orld": 5508,
      "æĬµ": 5509,
      "å¯¹äººç±»": 5510,
      "åĮ»éĻ¢": 5511,
      "hen": 5512,
      "æĽ´å¿«": 5513,
      "ä¸Ńæī¾åĪ°": 5514,
      "Ġgre": 5515,
      "é«ĺè´¨éĩıçļĦ": 5516,
      "èĸĦ": 5517,
      "ities": 5518,
      "åŃ¦èĢħ": 5519,
      "éĹ®é¢ĺæĪĸ": 5520,
      "å½±åĵįåĬĽ": 5521,
      "å·¥åħ·åĴĮ": 5522,
      "éģĩåĪ°ä»Ģä¹Ī": 5523,
      "æ·±è¿ľçļĦå½±åĵį": 5524,
      "fic": 5525,
      "Ġfact": 5526,
      "çļĦçĶ¨æĪ·": 5527,
      "å¼ºçĥĪ": 5528,
      "ç¾İåħĥå¯¹äººæ°ĳå¸ģ": 5529,
      "åıĤä¸İèĢħ": 5530,
      "æ¸ħçĲĨ": 5531,
      "çİ¯å¢ĥåĴĮ": 5532,
      "Ġç¤ºä¾ĭ": 5533,
      "çĶ»éĿ¢": 5534,
      "Ġ19": 5535,
      "åı¯ä»¥å¢ŀåĬł": 5536,
      "åŃĹæ®µ": 5537,
      "Ġê": 5538,
      "æİī": 5539,
      "æľīçĤ¹": 5540,
      "è¯»åıĸ": 5541,
      "è®¢åįķ": 5542,
      "å¿ĥèĦı": 5543,
      "ä¸Ģå¤©": 5544,
      "æĬĢæľ¯è¿ĽæŃ¥": 5545,
      "æĽ´æį¢": 5546,
      "ãģŁ": 5547,
      "å¯¹ç¤¾ä¼ļ": 5548,
      "è¯ķåĽ¾": 5549,
      "åľ£": 5550,
      "çļĦä¸Ģä¸ª": 5551,
      "åģ¥åº·é¥®é£Ł": 5552,
      "rox": 5553,
      "çĥŃæĥħ": 5554,
      "çĨŁæĤī": 5555,
      "ç£ħ": 5556,
      "çļĦæ¦Ĥå¿µ": 5557,
      "çļĦæľªæĿ¥": 5558,
      "èĥ½åĲ¦": 5559,
      "enerate": 5560,
      "read": 5561,
      "æĴŃæĶ¾": 5562,
      "åİ¨": 5563,
      "äººåı£": 5564,
      "è°¨": 5565,
      "pen": 5566,
      "å¤ļäºĳ": 5567,
      "åĪ©æ¶¦": 5568,
      "æĶ¾åľ¨": 5569,
      "çī©çĲĨåŃ¦": 5570,
      "arch": 5571,
      "col": 5572,
      "æ¸ħæ´Ĺ": 5573,
      "ger": 5574,
      "ian": 5575,
      "åı¯èĥ½ä¸į": 5576,
      "ä¸ºçĶ¨æĪ·": 5577,
      "source": 5578,
      "éĽĦ": 5579,
      "çŃĽéĢī": 5580,
      "Ġä¸Ń": 5581,
      "åĽĽä¸ª": 5582,
      "è¿Ļç§įæĸ¹æ³ķ": 5583,
      "tract": 5584,
      "Ġ13": 5585,
      "æĮĩå®ļ": 5586,
      "åĮºåĿĹéĵ¾æĬĢæľ¯": 5587,
      "æĮĩä»¤": 5588,
      "æĲľç´¢å¼ķæĵİ": 5589,
      "Ġco": 5590,
      "å®¶åħ·": 5591,
      "Ġcor": 5592,
      "æĹłéľĢ": 5593,
      "åĬĽåŃ¦": 5594,
      "rit": 5595,
      "ãģ¦": 5596,
      "åľŁåľ°": 5597,
      "çĶµæºĲ": 5598,
      "æķ°æĺ¯": 5599,
      "Ġrenewable": 5600,
      "åľ¨è¿Ľè¡Į": 5601,
      "æ·±åĳ¼åĲ¸": 5602,
      "Ġmost": 5603,
      "Ġday": 5604,
      "æĪĳä»¬é¦ĸåħĪ": 5605,
      "åĴĮåĪĽæĸ°": 5606,
      "çļĦå¤©æ°ĶæĢİä¹Īæł·": 5607,
      "è¿ĽåĪ¶": 5608,
      "å§¿": 5609,
      "çļĦä¸»é¢ĺ": 5610,
      "ä¸Ģåıª": 5611,
      "ä¸ĭéĿ¢æĺ¯ä¸Ģä¸ª": 5612,
      "å®ĥåľ¨": 5613,
      "ä¸İç¤¾ä¼ļ": 5614,
      "åħ´è¶£åĴĮ": 5615,
      "éĹ´çļĦ": 5616,
      "èĬĤçľģ": 5617,
      "æ¯ķ": 5618,
      "å¤§åĪ©": 5619,
      "å¹¶è¡Į": 5620,
      "Ġ40": 5621,
      "åĬłä¸Ĭ": 5622,
      "äººåľ¨": 5623,
      "pi": 5624,
      "è¿Ļä½¿å¾Ĺ": 5625,
      "oll": 5626,
      "://": 5627,
      "çľĭè¿ĩ": 5628,
      "igh": 5629,
      "Ġseems": 5630,
      "çļĦåİĨåı²": 5631,
      "æĲºå¸¦": 5632,
      "åĲĮæŃ¥": 5633,
      "å¥½å¥ĩå¿ĥ": 5634,
      "...": 5635,
      "åį±éĻ©": 5636,
      "æķ¢": 5637,
      "èĢĮè¨Ģ": 5638,
      "çĶŁåĳ½çļĦ": 5639,
      "ãĤĮ": 5640,
      "Ġchange": 5641,
      "è¯ĦåĪĨ": 5642,
      "ĠFrench": 5643,
      "è¯Ńè¨ĢçļĦ": 5644,
      "å¾ĹåĪ°äºĨ": 5645,
      "åħ¶åľ¨": 5646,
      "æľīæĹ¶": 5647,
      "å¦Ļ": 5648,
      "æĹĭè½¬": 5649,
      "Sh": 5650,
      "cial": 5651,
      "uro": 5652,
      "ä¸ģ": 5653,
      "åĽ°å¢ĥ": 5654,
      "fter": 5655,
      "åĲĦèĩª": 5656,
      "éŃħ": 5657,
      "æķ¸": 5658,
      "å·¥ç¨ĭå¸Ī": 5659,
      "æ¸¸æĪıçļĦ": 5660,
      "odel": 5661,
      "åºĨç¥Ŀ": 5662,
      "Ġmon": 5663,
      "nce": 5664,
      "ä¸įéĢĤ": 5665,
      "`ï¼ļ": 5666,
      "çŃīä¿¡æģ¯": 5667,
      "èľľ": 5668,
      "ology": 5669,
      "ç§¯åĪĨ": 5670,
      "çĩ¥": 5671,
      "éľĢéĢļè¿ĩ": 5672,
      "æ¯ıä¸ªäººçļĦ": 5673,
      "Re": 5674,
      "éĻĨ": 5675,
      "çİ¯å¢ĥæ±¡æŁĵ": 5676,
      "ily": 5677,
      "Ġboth": 5678,
      "è¿Ļç¯ĩæĸĩç«łä¸Ń": 5679,
      "åı¯è§Ĩ": 5680,
      "éŁ§": 5681,
      "characters": 5682,
      "åı¯èĥ½è¢«": 5683,
      "Ġsun": 5684,
      "ç§ĳæĬĢæĸ°éĹ»": 5685,
      "æĿ¥è®¡ç®Ĺ": 5686,
      "æĪĸèĢħåľ¨": 5687,
      "ç¤¼çī©": 5688,
      "ram": 5689,
      "ä¿Ĺ": 5690,
      "çıł": 5691,
      "åģ¥åº·åĴĮ": 5692,
      "å·¥ä½ľæķĪçİĩ": 5693,
      "åıĺåĮĸçļĦ": 5694,
      "ç®¡çĲĨåĴĮ": 5695,
      "å¤§äºİ": 5696,
      "æ¬²": 5697,
      "aris": 5698,
      "åħ¼å®¹æĢ§": 5699,
      "æį¢ç®Ĺ": 5700,
      "USD": 5701,
      "æ¨¡ç³Ĭ": 5702,
      "çļĦåĬŁèĥ½": 5703,
      "ĠPlease": 5704,
      "åİŁåĪĽ": 5705,
      "AN": 5706,
      "åĲĮæĹ¶ä¿ĿæĮģ": 5707,
      "çļĦä¸»": 5708,
      "èĤ¿": 5709,
      "ä»¤äºº": 5710,
      "æĽ´æľī": 5711,
      "æ»´": 5712,
      "è±¡å¾ģçĿĢ": 5713,
      "ä»¥ä¸ĭåĩłçĤ¹": 5714,
      "language": 5715,
      "éĿŀå¸¸æľī": 5716,
      "è£ģ": 5717,
      "éĹ²": 5718,
      "ä¹Łåľ¨": 5719,
      "åĽŀé¡¾": 5720,
      "èĩªè¡Įè½¦": 5721,
      "å¯¹åºĶ": 5722,
      "ä¼ļä¸įä¼ļ": 5723,
      "HTML": 5724,
      "ĠæĪĸ": 5725,
      "Ġimp": 5726,
      "quare": 5727,
      "å¤ļç§įåĽłç´ł": 5728,
      "Ġè®¡ç®Ĺ": 5729,
      "åħ«": 5730,
      "å®ŀéĻħæĥħåĨµ": 5731,
      "éĹ®é¢ĺæĹ¶": 5732,
      "akes": 5733,
      "åľ¨å®ŀéĻħåºĶçĶ¨ä¸Ń": 5734,
      "æĬ±": 5735,
      "æĻºèĥ½åĮĸ": 5736,
      "ä»¥ä¸ĭæĺ¯ä¸Ģæ®µ": 5737,
      "ä¼ĺç§Ģ": 5738,
      "çĶŁåĬ¨": 5739,
      "\\)ï¼Į": 5740,
      "æĹ¶å°ļ": 5741,
      "åºĶçĶ¨åľºæĻ¯": 5742,
      "åĨĽäºĭ": 5743,
      "åŁºéĩĳ": 5744,
      "æĹ¥çĽĬ": 5745,
      "åĽ¾ä¹¦é¦Ĩ": 5746,
      "36": 5747,
      "ï¼ŁâĢĿ": 5748,
      "Ġclass": 5749,
      "å¹³åĿĩåĢ¼": 5750,
      "çļĦæĸ°": 5751,
      "åĸľå¥½": 5752,
      "å±ķçİ°åĩº": 5753,
      "Ch": 5754,
      "ä¸Ĭæµ·": 5755,
      "æī¿è¯º": 5756,
      "imes": 5757,
      "æķ°æį®è¿Ľè¡Į": 5758,
      "åľ¨æľªæĿ¥": 5759,
      "èħ»": 5760,
      "rough": 5761,
      "}$": 5762,
      "åłĤ": 5763,
      "æĪĸç¼º": 5764,
      "åĴĮæĶ¯æĮģ": 5765,
      "ux": 5766,
      "æĹ¦": 5767,
      "æ³³": 5768,
      "ç§įç±»": 5769,
      "æģ©": 5770,
      "ãģĵ": 5771,
      "æ¨¡æĿ¿": 5772,
      "é¥®æĸĻ": 5773,
      "ages": 5774,
      "éĸ": 5775,
      "irect": 5776,
      "çŁ¥åĲį": 5777,
      "Ġac": 5778,
      "æĮĸ": 5779,
      "Ġwhile": 5780,
      "éĺĶ": 5781,
      "åĽŀåºĶ": 5782,
      "Ġunderstand": 5783,
      "èĥĢ": 5784,
      "å¿ĥçĲĨåĴ¨è¯¢": 5785,
      "æĺ¯åĲ¦èĥ½": 5786,
      "çĽĪ": 5787,
      "Here": 5788,
      "å®ļä¹īäºĨä¸Ģä¸ª": 5789,
      "è¿½è¸ª": 5790,
      "å°ıç»Ħ": 5791,
      "æĺ¯äººç±»": 5792,
      "ãĢĮ": 5793,
      "å½ĵåīįæĹ¶éĹ´": 5794,
      "timezone": 5795,
      "åĲĪå¹¶": 5796,
      "æ¯ıä¸Ģæ¬¡": 5797,
      "ç¼Ŀ": 5798,
      "çŃīå¤ļ": 5799,
      "æĳĩ": 5800,
      "å¹´æĿ¥": 5801,
      "ĊĠĠĠĠĊĠĠĠ": 5802,
      "air": 5803,
      "ä¸İåħ¶ä»ĸ": 5804,
      "å½±åĵįäºĨ": 5805,
      "ãĢį": 5806,
      "å£ģ": 5807,
      "å¯Ĵ": 5808,
      "ä½łåı¯èĥ½éľĢè¦ģ": 5809,
      "æ³ķè¯Ń": 5810,
      "Ġste": 5811,
      "åıĻ": 5812,
      "è¯·åĳĬè¯īæĪĳ": 5813,
      "let": 5814,
      "ince": 5815,
      "ç¬Ķè®°": 5816,
      "ä»»åĬ¡çļĦ": 5817,
      "æĬĢæľ¯åĴĮ": 5818,
      "Ġcreate": 5819,
      "è§£è¯»": 5820,
      "Can": 5821,
      "æ¬£èµı": 5822,
      "æİ¨åĬ¨äºĨ": 5823,
      "æįķæįī": 5824,
      "åĴĮè°ĥæķ´": 5825,
      "è®®é¢ĺ": 5826,
      "ä»Ķç»Ĩ": 5827,
      "äººæīį": 5828,
      "é¢ĦæĬ¥": 5829,
      "Ġexpress": 5830,
      "æĺ¯å¦Ĥä½ķ": 5831,
      "Ġbu": 5832,
      "åħ³éĶ®çĤ¹": 5833,
      "æĦıåĽ¾": 5834,
      "1371": 5835,
      "æī®æ¼ĶçĿĢ": 5836,
      "Ġ24": 5837,
      "åıĹä¼Ĺ": 5838,
      "ĠCl": 5839,
      "Ġfollowing": 5840,
      "æĺ¯ä¸ŃåĽ½": 5841,
      "åĲİæŀľ": 5842,
      "è¾£": 5843,
      "è·¨åŃ¦ç§ĳ": 5844,
      "ĠPro": 5845,
      "åĶĲ": 5846,
      "åĪĨåī²": 5847,
      "ä»Ĭå¤©å¤©æ°ĶçľŁ": 5848,
      "right": 5849,
      "ument": 5850,
      "Ġwho": 5851,
      "è®¡ç®Ĺæľºç§ĳåŃ¦": 5852,
      "æµģè¡Į": 5853,
      "å®ŀéĻħçļĦ": 5854,
      "Ġz": 5855,
      "åĩºæĿ¥": 5856,
      "çĶµè·¯": 5857,
      "æľīåĬ©äºİæıĲé«ĺ": 5858,
      "æĥ§": 5859,
      "Ġlength": 5860,
      "åīĬ": 5861,
      "æĺ¯å¯¹": 5862,
      "å¹¿æ³ĽçļĦåºĶçĶ¨": 5863,
      "åĮ»çĸĹä¿Ŀåģ¥": 5864,
      "For": 5865,
      "æĻ´": 5866,
      "æĢ§æł¼": 5867,
      "ç§ĺå¯Ĩ": 5868,
      "velop": 5869,
      "åĮĹäº¬çİ°åľ¨": 5870,
      "æĢ§åĴĮåı¯": 5871,
      "æ¯ıåĳ¨": 5872,
      "æķ°æį®éļĲç§ģ": 5873,
      "åĩ½æķ°çļĦ": 5874,
      "æĺŁæľŁ": 5875,
      "åĨħç½®": 5876,
      "éĢĻ": 5877,
      "æº¶": 5878,
      "é£ŁçĶ¨": 5879,
      "æ²īæµ¸": 5880,
      "çīĩæ®µ": 5881,
      "ä¸įåĨį": 5882,
      "æľºçļĦ": 5883,
      "çĭĹçĭĹ": 5884,
      "åı¯èĥ½åĽł": 5885,
      "ä¼ļå½±åĵį": 5886,
      "æŃ£åĪĻ": 5887,
      "estamp": 5888,
      "çĤ¸": 5889,
      "çº¢èī²": 5890,
      "åĴĮçĽ®æłĩ": 5891,
      "wind": 5892,
      "äººä½ĵ": 5893,
      "å®¶åºŃæĪĲåĳĺ": 5894,
      "è¿Ļæ¬¡": 5895,
      "æķĪçĽĬ": 5896,
      "å°ĺ": 5897,
      "ç²¾åº¦": 5898,
      "åħ¨çĲĥæķ°åŃĹ": 5899,
      "ä¹ĭéĹ´çļĦéļıæľºæķ°": 5900,
      "åħħè¶³çļĦ": 5901,
      "ings": 5902,
      "ĠEnglish": 5903,
      "ä¸ªä½ĵçļĦ": 5904,
      "å¼ĢæºĲ": 5905,
      "å¤ıåŃ£": 5906,
      "å¦Ĥæŀľæľī": 5907,
      "æĸĩçĮ®": 5908,
      "åĨħå¿ĥçļĦ": 5909,
      "anish": 5910,
      "åħ±è¯Ĩ": 5911,
      "æĴ°åĨĻ": 5912,
      "Ġstart": 5913,
      "èī¾èİī": 5914,
      "åĳĺå·¥çļĦ": 5915,
      "Ġrefer": 5916,
      "æįŁåĿı": 5917,
      "çĶ¨æĪ·åıįé¦Ī": 5918,
      "andas": 5919,
      "åĽ½çļĦ": 5920,
      "Ġinst": 5921,
      "è®¤åı¯": 5922,
      "Ġinv": 5923,
      "åĨ·éĿĻ": 5924,
      "ä¼ļå¯¼èĩ´": 5925,
      "æĪĳä¼ļå°½åĬĽ": 5926,
      "çļĦä»·æł¼": 5927,
      "äºĭå®ŀ": 5928,
      "75": 5929,
      "old": 5930,
      ")^": 5931,
      "quence": 5932,
      "éĿ¢åĮħ": 5933,
      "è¯ĬæĸŃåĴĮæ²»çĸĹ": 5934,
      "åħįè´¹": 5935,
      "htt": 5936,
      "Ġrequest": 5937,
      "cdot": 5938,
      "åĬłå·¥": 5939,
      "å¯¹æĸ¹çļĦ": 5940,
      "çļĦçĶŁæ´»æĸ¹å¼ı": 5941,
      "Tom": 5942,
      "æĺ¯åĲ¦éľĢè¦ģ": 5943,
      "Ġgo": 5944,
      "ç©ºæ°Ķè´¨éĩı": 5945,
      "åıĹæ¬¢è¿İ": 5946,
      "ä¿ĥä½¿": 5947,
      "çŃĸçķ¥åĴĮ": 5948,
      "\"ï¼Į": 5949,
      "ç¾İè§Ĥ": 5950,
      "ä¸Ńä½¿çĶ¨": 5951,
      "App": 5952,
      "å·¨å¤§": 5953,
      "</": 5954,
      "åİĤ": 5955,
      "plo": 5956,
      "GP": 5957,
      "åĪĨæķ£": 5958,
      "çİī": 5959,
      "Ġtranslation": 5960,
      "éĻª": 5961,
      "Therefore": 5962,
      "åĪĨå¸ĥå¼ı": 5963,
      "å¾®ä¿¡": 5964,
      "æĮĩåĩº": 5965,
      "ä»£è°¢": 5966,
      "æĢ§èĥ½åĴĮ": 5967,
      "åķĨå®¶": 5968,
      "åĮĻ": 5969,
      "åĲĪä½ľä¼Ļä¼´": 5970,
      "ä¸İä»ĸäºº": 5971,
      "æĪĳåı¯ä»¥æıĲä¾Ľ": 5972,
      "å¹²çĩ¥": 5973,
      "åį³åı¯": 5974,
      "åĪĽæĸ°åĴĮ": 5975,
      "å®ļæľŁæ£ĢæŁ¥": 5976,
      "é¢Ħå¤ĦçĲĨ": 5977,
      "çļĦé«ĺ": 5978,
      "Ġequal": 5979,
      "æķĻç¨ĭ": 5980,
      "çļĦé£Łçī©": 5981,
      "è¡£çī©": 5982,
      "ç£¨": 5983,
      "äººç±»å¯¹": 5984,
      "æĭĽèģĺ": 5985,
      "çĽ¸äºĴä½ľçĶ¨": 5986,
      "uring": 5987,
      "åĵĪå¸Į": 5988,
      "åį°è±¡": 5989,
      "èĲ¥éĢł": 5990,
      "è¾ĥé«ĺçļĦ": 5991,
      "çİ¯ä¿ĿçļĦ": 5992,
      "Ġ\\(\\": 5993,
      "è¥¿æĸ¹": 5994,
      "ures": 5995,
      "èģĶåĲĪ": 5996,
      "Ġdate": 5997,
      "ä½łä»Ĭå¤©è¿ĩå¾ĹæĢİä¹Īæł·": 5998,
      "çģ¾å®³": 5999,
      "åĪĿå§ĭåĮĸ": 6000,
      "è¾¨": 6001,
      "é£İæł¼çļĦ": 6002,
      "ëĬ": 6003,
      "ä¸įåı¯æĪĸç¼º": 6004,
      "Ġperson": 6005,
      "å¸®åĬ©ä»ĸä»¬": 6006,
      "åĿĲæłĩ": 6007,
      "çĽ¸æ¯Ķ": 6008,
      "Ġdog": 6009,
      "æĹ©é¤Ĳ": 6010,
      "éĴ¢": 6011,
      "åĽŀå¿Ĩ": 6012,
      "Ġresp": 6013,
      "æĸľ": 6014,
      "AB": 6015,
      "çº¿ä¸Ĭ": 6016,
      "éĢļå¸¸åĮħæĭ¬": 6017,
      "ä»ĵ": 6018,
      "æ¬§æ´²": 6019,
      "Ġtable": 6020,
      "å°½åı¯èĥ½": 6021,
      "æľĢè¿ĳæľīæ²¡æľīäºº": 6022,
      "çĪ±çļĦ": 6023,
      "ä¸ĢæĿ¡": 6024,
      "æĽ´åĩĨç¡®åľ°": 6025,
      "åŃ©åŃĲä»¬": 6026,
      "Alice": 6027,
      "è¶³çĲĥ": 6028,
      "è·¯çĶ±": 6029,
      "é£İåĳ³": 6030,
      "æª": 6031,
      "ä¸ĢåĲį": 6032,
      "åĩºçİ°çļĦ": 6033,
      "èĵĿèī²": 6034,
      "èº«ä½ĵçļĦ": 6035,
      "åľ¨å®¶": 6036,
      "è¢«ç§°ä¸º": 6037,
      "èĦ¸": 6038,
      "æĬ¥éģĵ": 6039,
      "çĶµåķĨ": 6040,
      "åıĺæĪĲ": 6041,
      "35": 6042,
      "æĦıä¹īçļĦ": 6043,
      "è¿Ļå¯¹äºİ": 6044,
      "å¯¿åĳ½": 6045,
      "å£®": 6046,
      "ĠAd": 6047,
      "ild": 6048,
      "Ġdetails": 6049,
      "æħİ": 6050,
      "Ġassist": 6051,
      "æİĺ": 6052,
      "ä¸ĢæĹ¦": 6053,
      "æ¸´": 6054,
      "çļĦè¯¦ç»Ĩ": 6055,
      "NL": 6056,
      "Cl": 6057,
      "äºĭçī©": 6058,
      "ä¸¢å¤±": 6059,
      "å¥½å¤Ħ": 6060,
      "çĽ®çļĦåľ°": 6061,
      "åįķåħĥ": 6062,
      "70": 6063,
      "è·ĳæŃ¥": 6064,
      "é¼ł": 6065,
      "ml": 6066,
      "æģĲæĥ§": 6067,
      "Ġ32": 6068,
      "äºĭåĬ¡": 6069,
      "éħĴåºĹ": 6070,
      "æĢ§æĢĿç»´": 6071,
      "åĩłä½ķ": 6072,
      "éĢŁåº¦åĴĮ": 6073,
      "èħ¿": 6074,
      "åı¯ä»¥ä½ľä¸º": 6075,
      "ĠTr": 6076,
      "åľ°çĲĥçļĦ": 6077,
      "934": 6078,
      "çªģåĩº": 6079,
      "è´Łè½½": 6080,
      "ç¨ĭåº¦ä¸Ĭ": 6081,
      "éĻ¤ä»¥": 6082,
      "ä»Ĭå¤©æĥ³": 6083,
      "Ġmu": 6084,
      "å±ħä½ı": 6085,
      "èĥ½åĬĽçļĦ": 6086,
      "ä¿ĿæĮģèī¯å¥½çļĦ": 6087,
      "éļ¾é¢ĺ": 6088,
      "ä¸Ģä»¶": 6089,
      "åı¯è§ĨåĮĸ": 6090,
      "éľĢæ±ĤçļĦ": 6091,
      "}}": 6092,
      "Ġlen": 6093,
      "æĴĳ": 6094,
      "åĩĨåĪĻ": 6095,
      "ices": 6096,
      "æīĢéľĢçļĦ": 6097,
      "è¡Įä¸ºçļĦ": 6098,
      "SON": 6099,
      "à¹": 6100,
      "æĭħå¿ĥ": 6101,
      "ä½łæĥ³è¦ģ": 6102,
      "ions": 6103,
      "çĸ«æĥħ": 6104,
      "rix": 6105,
      "å¹³åı°çļĦ": 6106,
      "ĠX": 6107,
      "ä¸įåĲĮæĸĩåĮĸ": 6108,
      "æł¹æį®ä¸ªäºº": 6109,
      "ç¨¿": 6110,
      "äº¡": 6111,
      "æľīæľº": 6112,
      "éķ¿çļĦ": 6113,
      "èµ¢": 6114,
      "æĺŁçĲĥ": 6115,
      "ä»¥éģ¿åħį": 6116,
      "Ġinter": 6117,
      "CN": 6118,
      "èĳĹåĲįçļĦ": 6119,
      "çļĦæĸĩåĮĸ": 6120,
      "åĮħåĲ«äºĨ": 6121,
      "éģ¥": 6122,
      "è¿ª": 6123,
      "è¿ĳå¹´æĿ¥": 6124,
      "Ġbec": 6125,
      "æĿ¡ä»¶ä¸ĭ": 6126,
      "æĶ¾åħ¥": 6127,
      "ç¢Į": 6128,
      "åŃĹä½ĵ": 6129,
      "Ġquick": 6130,
      "ounds": 6131,
      "Ġinput": 6132,
      "åĶ±": 6133,
      "æĤ¬": 6134,
      "Ġ%": 6135,
      "æİ¨è¿Ľ": 6136,
      "æĥħæĦŁåĴĮ": 6137,
      "å¾Īé«ĺ": 6138,
      "è¾ĵåħ¥çļĦ": 6139,
      "ä¸ĥ": 6140,
      "åľ¨è¿ĻéĩĮ": 6141,
      "åĲĪè§ĦæĢ§": 6142,
      "èĭ¦": 6143,
      "æ³ķå¾ĭåĴĮ": 6144,
      "å¿Ļç¢Į": 6145,
      "IT": 6146,
      "timestamp": 6147,
      "èĸª": 6148,
      "è¡Ģåİĭ": 6149,
      "çĽĽ": 6150,
      "è¿«": 6151,
      "åħ¬æ°ĳ": 6152,
      "éº»": 6153,
      "èĥİ": 6154,
      "IN": 6155,
      "åıĺæļĸ": 6156,
      "äºĭæĥħ": 6157,
      "ides": 6158,
      "æįŁå®³": 6159,
      "lect": 6160,
      "å¦ĤæŀľæĤ¨æľī": 6161,
      "å¹¿æ³ĽåºĶçĶ¨": 6162,
      "è¡Ģæ¶²": 6163,
      "Windows": 6164,
      "è¯ŃéŁ³è¯ĨåĪ«": 6165,
      "çŀ¬éĹ´": 6166,
      "æĪĳæĺ¯": 6167,
      "::": 6168,
      "çģŃ": 6169,
      "çļĦç»ĵæŀĦ": 6170,
      "Ġwebs": 6171,
      "condition": 6172,
      "ä»¥ä¸ĭæĺ¯ä¸Ģæ®µä¸¤äººçļĦå¯¹è¯ĿåĨħå®¹": 6173,
      "æĭħå¿§": 6174,
      "å·§åħĭ": 6175,
      "DP": 6176,
      "oin": 6177,
      "Ġthrough": 6178,
      "éĿ©åĳ½": 6179,
      "é¸¡èĽĭ": 6180,
      "è¿Ľåº¦": 6181,
      "éĢĬ": 6182,
      "Ad": 6183,
      "åľ¨ä¸įåĲĮçļĦ": 6184,
      "åĬłæ·±": 6185,
      "ç¼ºçĤ¹": 6186,
      "éĢļå¸¸çĶ¨äºİ": 6187,
      "çİ°åľº": 6188,
      "æ¢ģ": 6189,
      "æī«æıı": 6190,
      "çļĦå¤§å°ı": 6191,
      "æĽ´åħ·ä½ĵçļĦ": 6192,
      "çĬ¯ç½ª": 6193,
      "è¯Ī": 6194,
      "éĹ´æİ¥": 6195,
      "èµĦæºĲåĴĮ": 6196,
      "æģ¶æĦı": 6197,
      "ank": 6198,
      "ä¸¥æł¼çļĦ": 6199,
      "å®ĺæĸ¹ç½ĳç«Ļ": 6200,
      "å¤§å¤§": 6201,
      "lear": 6202,
      "åĴª": 6203,
      "é¥®é£Łä¹łæĥ¯": 6204,
      "ä¸Ģæ¬¾": 6205,
      "å¯ĮåĲ«": 6206,
      "å°±åĥı": 6207,
      "æİ¢è®¨äºĨ": 6208,
      "å®ŀçĶ¨": 6209,
      "ä»°": 6210,
      "ç½ĳç»ľå®īåħ¨": 6211,
      "kyo": 6212,
      "å¤¹": 6213,
      "ç©¿è¶Ĭ": 6214,
      "ose": 6215,
      "çļĦåı¯èĥ½æĢ§": 6216,
      "{\\": 6217,
      "çĶµåĬ¨": 6218,
      "èĬĤçº¦": 6219,
      "æĦĪ": 6220,
      "ency": 6221,
      "å®ĹæķĻ": 6222,
      "æĶ¹åıĺäºĨ": 6223,
      "']": 6224,
      "èĥĮåĲİçļĦ": 6225,
      "çĶµåĬĽ": 6226,
      "æº¯": 6227,
      "ye": 6228,
      "Ġhours": 6229,
      "åĨł": 6230,
      "éĢĤçĶ¨": 6231,
      "New": 6232,
      "ä¼¦çĲĨæ¡Ĩæŀ¶": 6233,
      "æ³¨éĩĬ": 6234,
      "Ġword": 6235,
      "é«ĺæķĪçļĦ": 6236,
      "åı¯ä»¥æĺ¾èĳĹ": 6237,
      "èµĶ": 6238,
      "æĿĲè´¨": 6239,
      "éľĢè¦ģæł¹æį®": 6240,
      "location": 6241,
      "åŃ¦ä¹łçļĦ": 6242,
      "æ»©": 6243,
      "èģĮè´£": 6244,
      "å¤ĦçļĦ": 6245,
      "ç¼ºå¤±": 6246,
      "æĿĥå¨ģ": 6247,
      "å®Ŀè´µ": 6248,
      "å®¿": 6249,
      "æĭĮ": 6250,
      "å©´": 6251,
      "ople": 6252,
      "äººä»¬çļĦ": 6253,
      "åı¯ä»¥å®ŀçİ°": 6254,
      "cel": 6255,
      "ique": 6256,
      "Ġdifferent": 6257,
      "æıĲä¾Ľå®ŀæĹ¶": 6258,
      "æ¯Ķçī¹": 6259,
      "åĪĽéĢłåĩº": 6260,
      "åĲī": 6261,
      "ëĬĶ": 6262,
      "æ´Ľ": 6263,
      "speed": 6264,
      "æ¯Ķåĸ»": 6265,
      "äº§çĶŁçļĦ": 6266,
      "è´¦åı·": 6267,
      "åŀĥåľ¾åĪĨç±»": 6268,
      "åıĸå¾ĹäºĨ": 6269,
      "è¿ĩæķı": 6270,
      "ĠĠĠĠĠĠĠĠ": 6271,
      "èľĤ": 6272,
      "åŁĥ": 6273,
      "åħļ": 6274,
      "å¹´ä»£": 6275,
      "è¯Ńä¹ī": 6276,
      "åĳ³éģĵ": 6277,
      "é¡¹çĽ®çļĦ": 6278,
      "åı¯æĮģç»ŃæĢ§": 6279,
      "åĭĩæķ¢": 6280,
      "ä¸įä»ħåľ¨": 6281,
      "è°Ĭ": 6282,
      "Bob": 6283,
      "bin": 6284,
      "SC": 6285,
      "åĴĮå¸Ĥåľº": 6286,
      "çļĦåľºæĻ¯": 6287,
      "çļĦæĮĩå¯¼": 6288,
      "\\)ãĢĤ": 6289,
      "ym": 6290,
      "å²Ĺ": 6291,
      "Ġoper": 6292,
      "æĥĳ": 6293,
      "æĹ¶éĹ´åĨħ": 6294,
      "æ¸©å®¤": 6295,
      "ä¼ģä¸ļçļĦ": 6296,
      "ä¸Ĭæľī": 6297,
      "åµ": 6298,
      "ä»Ĭå¤©å¤©æ°ĶçľŁå¥½": 6299,
      "99": 6300,
      "array": 6301,
      "èħº": 6302,
      "ublic": 6303,
      "çļĦæ°´": 6304,
      "åĲĪæĪĲ": 6305,
      "æĪĸè®¸": 6306,
      "æĮĳæĪĺåĴĮ": 6307,
      "çĮ«åĴª": 6308,
      "Ġamount": 6309,
      "æ´»åĬĽ": 6310,
      "è¡¨è¾¾æĸ¹å¼ı": 6311,
      "=\"": 6312,
      "æĴŀ": 6313,
      "åĽ¢éĺŁåįıä½ľ": 6314,
      "å¾¡": 6315,
      "Ġâī": 6316,
      "äº¤åıī": 6317,
      "åĴĮå¤ĦçĲĨ": 6318,
      "éĢ»è¾ĳæİ¨çĲĨ": 6319,
      "åĪĨæķ°": 6320,
      "çĩĥæĸĻ": 6321,
      "ç´«": 6322,
      "éĩįè¦ģæĢ§": 6323,
      "ç¿»è¯ĳæĪĲä¸Ńæĸĩ": 6324,
      "åĵ¥": 6325,
      "è¿Ļæ®µæĸĩåŃĹ": 6326,
      "è¿ĽåĮĸ": 6327,
      "æľĢå¥½": 6328,
      "èĳ±": 6329,
      "Ġarray": 6330,
      "èķ´": 6331,
      "ç¢³æİĴæĶ¾": 6332,
      "å·¥èµĦ": 6333,
      "ç¼ł": 6334,
      "ï¼ī**": 6335,
      "çĪ¶æ¯į": 6336,
      "CD": 6337,
      "æ·»åĬłåĪ°": 6338,
      "temperature": 6339,
      "éģ¿åħįåľ¨": 6340,
      "28": 6341,
      "çģ°": 6342,
      "åĽŀå¤į": 6343,
      "æĮĩç¤º": 6344,
      "åı¯èĥ½ä¼ļå½±åĵį": 6345,
      "çļĦåīį": 6346,
      "æ¡Īä»¶": 6347,
      "Ġdist": 6348,
      "'d": 6349,
      "åĲ¸å¼ķåĬĽ": 6350,
      "å¦ĤåĲĮ": 6351,
      "æĦīå¿«": 6352,
      "à¤": 6353,
      "åħ³ç³»çļĦ": 6354,
      "åħ·ä½ĵæĥħåĨµ": 6355,
      "random": 6356,
      "è¿ĻäºĽå»ºè®®": 6357,
      "æĺ¯åĲ¦ä¸º": 6358,
      "åİĭç¼©": 6359,
      "è¡Ģç®¡": 6360,
      "æĪĳä»¬åı¯ä»¥ä½¿çĶ¨": 6361,
      "ock": 6362,
      "æĪĸæĺ¯": 6363,
      "æľ¬æĸĩ": 6364,
      "åĽ½éĻħåĲĪä½ľ": 6365,
      "raph": 6366,
      "åĬĽäºİ": 6367,
      "è¿ĳæľŁ": 6368,
      "è®¾è®¡å¸Ī": 6369,
      "ä¸Ńä¿ĿæĮģ": 6370,
      "åĲĦåĽ½": 6371,
      "è£ħå¤ĩ": 6372,
      "é½Ĳ": 6373,
      "èĩªæĪĳåıįæĢĿ": 6374,
      "minim": 6375,
      "åĴĮå¹³": 6376,
      "çľĭæ³ķ": 6377,
      "åĬłçĥŃ": 6378,
      "åı¦å¤ĸ": 6379,
      "å·¦åı³": 6380,
      "æ¸¸å®¢": 6381,
      "ç§ĳæĬĢåĪĽæĸ°": 6382,
      "æ¸¸æ³³": 6383,
      "æĪĲå°±æĦŁ": 6384,
      "æĪĳä»¬ä½¿çĶ¨": 6385,
      "Ġeff": 6386,
      "ç®Ģè¦ģ": 6387,
      "Ġsubtract": 6388,
      "å®ļå¾ĭ": 6389,
      "Ġsort": 6390,
      "ç¾Ĭ": 6391,
      "æľīæķĪæĢ§": 6392,
      "ĠâĢľ": 6393,
      "åºĦ": 6394,
      "ula": 6395,
      "è¿Ŀåıį": 6396,
      "å¤ĸè§Ĥ": 6397,
      "Ġlight": 6398,
      "è°ĥè¯ķ": 6399,
      "Ġbeen": 6400,
      "Ġmuch": 6401,
      "åįķä¸Ģ": 6402,
      "è§ģè§£": 6403,
      "Ġkey": 6404,
      "å¤©ç©º": 6405,
      "åµĮ": 6406,
      "Ġdevelop": 6407,
      "æ¯ıç§į": 6408,
      "åį±æľº": 6409,
      "æ·±åİļ": 6410,
      "äºĮæ°§åĮĸ": 6411,
      "å¢¨": 6412,
      "çº¦æĿŁ": 6413,
      "åħ¶çĭ¬çī¹çļĦ": 6414,
      "èĢĮå¼Ĥ": 6415,
      "æĬ¤çĲĨ": 6416,
      "åĽŀåĪ°": 6417,
      "å¿«éĢŁåıĳå±ķ": 6418,
      "æĿ¥è§£åĨ³": 6419,
      "å¹³éĿ¢": 6420,
      "ãĤ¹": 6421,
      "è¯ķè¯ķ": 6422,
      "èīºæľ¯çļĦ": 6423,
      "æ¬§çĽŁ": 6424,
      "å¯»æ±Ĥä¸ĵä¸ļ": 6425,
      "ä¹ĭåĲİ": 6426,
      "ĠJava": 6427,
      "å§ĵåĲį": 6428,
      "æĺ¯åĽłä¸º": 6429,
      "ĠSpanish": 6430,
      "å¯¹çİ¯å¢ĥ": 6431,
      "Ġfile": 6432,
      "å°ıåŀĭ": 6433,
      "å®īéĿĻ": 6434,
      "æ¶ĪåĮĸ": 6435,
      "å¯ĨåĪĩ": 6436,
      "max": 6437,
      "äººå·¥æĻºèĥ½æĬĢæľ¯çļĦ": 6438,
      "sole": 6439,
      "è¿Ļåľ¨": 6440,
      "éĢļè¿ĩä»¥ä¸Ĭ": 6441,
      "è§£åĨ³éĹ®é¢ĺçļĦèĥ½åĬĽ": 6442,
      "èĬĴ": 6443,
      "è½¬ç§»": 6444,
      "yn": 6445,
      "å¸Ŀ": 6446,
      "æ¨¡ä»¿": 6447,
      "çĶµåŃĲè®¾å¤ĩ": 6448,
      "jour": 6449,
      "åı¯ä»¥æľīæķĪåľ°": 6450,
      "éķ¿æľŁçļĦ": 6451,
      "æĪĳä»¬çļĦçĶŁæ´»": 6452,
      "çķĻä¸ĭ": 6453,
      "çĽ®æłĩåĴĮ": 6454,
      "æĻļä¸Ĭ": 6455,
      "å¤ļæ¬¡": 6456,
      "ause": 6457,
      "humidity": 6458,
      "æŃ§è§Ĩ": 6459,
      "å¤®": 6460,
      "æ¯«": 6461,
      "ä¹ĭå¤Ħ": 6462,
      "ä½ľä¸ļ": 6463,
      "ä¸¾åĬŀ": 6464,
      "çĽ´æİ¥å½±åĵį": 6465,
      "çķĮçļĦ": 6466,
      "åıĭè°Ĭ": 6467,
      "ãģĻãĤĭ": 6468,
      "aint": 6469,
      "èī¾ç±³": 6470,
      "è¾¾æĪĲ": 6471,
      "åľ¨ä¸Ģèµ·": 6472,
      "èĩ´åĬĽäºİ": 6473,
      "åĮĸåĲĪ": 6474,
      "èĥ¶": 6475,
      "é¡¾éĹ®": 6476,
      "æĸĩåĮĸä¸Ń": 6477,
      "çĸ¾çĹħçļĦ": 6478,
      "ä½Ĩåľ¨": 6479,
      "è®¾è®¡ä¸Ģä¸ª": 6480,
      "ä¿ĥéĶĢ": 6481,
      "æĮ¯": 6482,
      "æĽ´é«ĺ": 6483,
      "åĩıåİ»": 6484,
      "æŀģå¤§åľ°": 6485,
      "Ġweek": 6486,
      "çĿ¡çľłè´¨éĩı": 6487,
      "è§Ĵèī²çļĦ": 6488,
      "æķĪçİĩä¸İ": 6489,
      "æĤ¦": 6490,
      "ven": 6491,
      "æ¨¡åŀĭåĴĮ": 6492,
      "å±ķå¼Ģ": 6493,
      "é»ĳæ´ŀ": 6494,
      "ä¸Ģå¼ł": 6495,
      "åĵ¦": 6496,
      "ames": 6497,
      "å¯Ĩåº¦": 6498,
      "æ¼ıæ´ŀ": 6499,
      "file": 6500,
      "ying": 6501,
      "æĮĤ": 6502,
      "ational": 6503,
      "\".": 6504,
      "ç¢ĳ": 6505,
      "ä¼ļæł¹æį®": 6506,
      "minimind": 6507,
      "æĳĦå½±": 6508,
      "è¹Ī": 6509,
      "çĶ°": 6510,
      "çĶŁçī©åŃ¦": 6511,
      "ç¨į": 6512,
      "ä¸´åºĬ": 6513,
      "ç¾İåħĥå¯¹äººæ°ĳå¸ģçļĦæ±ĩçİĩ": 6514,
      "Ġproduct": 6515,
      "åĽŀæĬ¥": 6516,
      "è¿Ľè¡ĮæİĴåºı": 6517,
      "éĩįå¡ĳ": 6518,
      "è¿Ľè¡ĮäºĨ": 6519,
      "ä½ĨéľĢ": 6520,
      "çłĶç©¶åĴĮ": 6521,
      "éĩįæŀĦ": 6522,
      "å°Ŀè¯ķè¿ĩ": 6523,
      "æ¬º": 6524,
      "åģ¥åº·éĹ®é¢ĺ": 6525,
      "ç¾İå¥½çļĦ": 6526,
      "Ġyears": 6527,
      "åĿĬ": 6528,
      "åı¯ä»¥çĶ¨æĿ¥": 6529,
      "åħ¶ä¸ŃçļĦ": 6530,
      "imal": 6531,
      "ä¸ªäººä¿¡æģ¯": 6532,
      "åľ¨çº¿è¯¾ç¨ĭ": 6533,
      "å¢ŀæ·»": 6534,
      "Ð»": 6535,
      "è¿Ļé¦ĸ": 6536,
      "'ll": 6537,
      "çļĦæ°ĽåĽ´": 6538,
      "ĠWorld": 6539,
      "åłµ": 6540,
      "å½¢æĢģ": 6541,
      "åı¯èĥ½å¼ķåıĳ": 6542,
      "åĴĮå·¥ä½ľ": 6543,
      "åºĶæĢ¥": 6544,
      "èĳ¡èĲ": 6545,
      "èĳ¡èĲĦ": 6546,
      "å¹¶è¿ĶåĽŀ": 6547,
      "iel": 6548,
      "çº½": 6549,
      "çĽ®çļĦæĺ¯": 6550,
      "çģ«æĺŁ": 6551,
      "çİĽ": 6552,
      "å¦Ĥæŀľåı¯èĥ½": 6553,
      "ä¸ŃéĹ´": 6554,
      "è¯·å°Ĩ": 6555,
      "ources": 6556,
      "æłĩåĩĨçļĦ": 6557,
      "è¿Ļä¸ªè¿ĩç¨ĭ": 6558,
      "Ø§": 6559,
      "å«": 6560,
      "aw": 6561,
      "è§¦åıĳ": 6562,
      "æĺ¯ä¸Ģä½į": 6563,
      "åĳ½è¿Ĳ": 6564,
      "æ»¥": 6565,
      "åĿ¦": 6566,
      "ç»ĺçĶ»": 6567,
      "irc": 6568,
      "è¿Ļç§įæĥħåĨµä¸ĭ": 6569,
      "éĢĤéĩıçļĦ": 6570,
      "æĺ¾å¾Ĺ": 6571,
      "çļĦæĹ¶åĢĻ": 6572,
      "number": 6573,
      "çļĦæĢģåº¦": 6574,
      "æĺİæĻº": 6575,
      "è¿Ļæł·åı¯ä»¥": 6576,
      "rown": 6577,
      "éĢĥ": 6578,
      "åĳ½åĲį": 6579,
      "çĲĥåĳĺ": 6580,
      "Ġline": 6581,
      "Ġplus": 6582,
      "ĠTokyo": 6583,
      "ä¸ĭåįĪ": 6584,
      "éĩĮçļĦ": 6585,
      "æ®ĭ": 6586,
      "èĪŀè¹Ī": 6587,
      "VR": 6588,
      "çĽ¸çŃī": 6589,
      "å®ĺæĸ¹æĸĩæ¡£": 6590,
      "çļĦä»»åĬ¡": 6591,
      "ä¸Ģå¹´": 6592,
      "åŀĤ": 6593,
      "Ġtool": 6594,
      "Ġfin": 6595,
      "æĮĸæİĺ": 6596,
      "32": 6597,
      "é¡¹çĽ®ç®¡çĲĨ": 6598,
      "Ġpoint": 6599,
      "ä¾ĽåºĶåķĨ": 6600,
      "å¹³éĿĻ": 6601,
      "ically": 6602,
      "comm": 6603,
      "ä¸įèī¯": 6604,
      "å¯¹åºĶçļĦ": 6605,
      "Sp": 6606,
      "ç¿»è¯ĳæĪĲèĭ±æĸĩ": 6607,
      "æĸĩåĮĸéģĹäº§": 6608,
      "Convert": 6609,
      "åħĳ": 6610,
      "ä¸ŃæľĢ": 6611,
      "Ġbased": 6612,
      "åı¯ä»¥å¸®åĬ©æĤ¨": 6613,
      "æŀĦå»ºä¸Ģä¸ª": 6614,
      "ç§©": 6615,
      "NLP": 6616,
      "è¿ĻäºĽéĹ®é¢ĺ": 6617,
      "utes": 6618,
      "sql": 6619,
      "æĿĢ": 6620,
      "ric": 6621,
      ":\",": 6622,
      "Ġbook": 6623,
      "å¾ĭå¸Ī": 6624,
      "ss": 6625,
      "æ¸´æľĽ": 6626,
      "ãĥ³": 6627,
      "æĽ´å¤§çļĦ": 6628,
      "åľ°çĲĨè§£": 6629,
      "Ġcons": 6630,
      "æ°ĳæĹı": 6631,
      "æľªçŁ¥çļĦ": 6632,
      "ç¼ĸåĨĻä¸Ģä¸ª": 6633,
      "åĽ¾æ¡Ī": 6634,
      "ular": 6635,
      "ä¸Ģæ¬¡æĢ§": 6636,
      "å¤ĦçĲĨåĴĮ": 6637,
      "è¿ĽèĢĮ": 6638,
      "å®¡æł¸": 6639,
      "åĤ¬": 6640,
      "å®¹éĩı": 6641,
      "ient": 6642,
      "æĤ²": 6643,
      "Ġperform": 6644,
      "rect": 6645,
      "åĢ¡": 6646,
      "æľīå®³": 6647,
      "Ġsm": 6648,
      "åŃ¦ä¹łæĸ°æĬĢèĥ½": 6649,
      "çĶŁçī©å¤ļæł·æĢ§": 6650,
      "åı¯èĥ½æ¶īåıĬ": 6651,
      "å¼ºçļĦ": 6652,
      "æĺ¯éĿŀå¸¸éĩįè¦ģçļĦ": 6653,
      "Ġtrue": 6654,
      "Ġmeans": 6655,
      "éĻĪè¿°": 6656,
      "é£İéĻ©ç®¡çĲĨ": 6657,
      "åħ¬åħ±äº¤éĢļ": 6658,
      "ç¬¬äºĮä¸ª": 6659,
      "ption": 6660,
      "æĪĺäºī": 6661,
      "ç¢İçīĩ": 6662,
      "inux": 6663,
      "Ġleft": 6664,
      "å°ıäºİ": 6665,
      "åĩıå°ĳäºĨ": 6666,
      "oup": 6667,
      "Ġcomple": 6668,
      "åħ³æĢĢ": 6669,
      "èµĦæºĲåĪĨéħį": 6670,
      "è¢«è®¤ä¸º": 6671,
      "çĶŁæĪĲä¸Ģæ®µ": 6672,
      "æ©Ļ": 6673,
      "æĻĴ": 6674,
      "åĲ¬èµ·æĿ¥": 6675,
      "åīįå¾Ģ": 6676,
      "ä½łæľīä»Ģä¹Ī": 6677,
      "å¸®åĬ©æĪĳä»¬": 6678,
      "verse": 6679,
      "æĶ¹éĿ©": 6680,
      "åİŁåŃĲ": 6681,
      "ä½ľåĵģçļĦ": 6682,
      "æĬ«": 6683,
      "vi": 6684,
      "ç¢°": 6685,
      "cept": 6686,
      "åĽ¾è¡¨": 6687,
      "Ġlong": 6688,
      "çĮľ": 6689,
      "æĶ¯æĴĳ": 6690,
      "å¹¿éĺĶ": 6691,
      "gg": 6692,
      "æķ°æį®å®īåħ¨": 6693,
      "åĴĮæĬĢæľ¯": 6694,
      "AIä¼¦çĲĨ": 6695,
      "åľ°çļĦ": 6696,
      "ĠLet": 6697,
      "line": 6698,
      "éĽĨä½ĵ": 6699,
      "ç©¿çĿĢ": 6700,
      "å·§åħĭåĬĽ": 6701,
      "ç¾İçļĦ": 6702,
      "Ġclimate": 6703,
      "Ġmake": 6704,
      "ser": 6705,
      "**.": 6706,
      "ply": 6707,
      "å®¾": 6708,
      "ĠãĢĬ": 6709,
      "æ´ŀå¯Ł": 6710,
      "éļ¾åº¦": 6711,
      "å¹½é»ĺ": 6712,
      "Ġ200": 6713,
      "ä¸Ģåľº": 6714,
      "Ġmain": 6715,
      "Git": 6716,
      "Ġreg": 6717,
      "ç¿»è¯ĳæĪĲæ³ķè¯Ń": 6718,
      "ä»İèĢĮåľ¨": 6719,
      "ä¼¯": 6720,
      "è¯įè¯Ń": 6721,
      "è¡¨è¿°": 6722,
      "èĪªç©º": 6723,
      "'m": 6724,
      "æ¢ħ": 6725,
      "çĵľ": 6726,
      "ä¿ĿæĬ¤çİ¯å¢ĥ": 6727,
      "ipp": 6728,
      "åĵªéĩĮ": 6729,
      "åĩĿèģļ": 6730,
      "éŃħåĬĽ": 6731,
      "å·Ŀ": 6732,
      "å¾Īå¥½çļĦ": 6733,
      "Ġgenerated": 6734,
      "ä¹Ĳè§Ĥ": 6735,
      "å®¢æĪ·ç«¯": 6736,
      "ets": 6737,
      "åľ°éĿ¢": 6738,
      "ä»¥å®ŀçİ°": 6739,
      "åºĶè¯¥æĺ¯": 6740,
      "åħ³äºİäººå·¥æĻºèĥ½": 6741,
      "å¸ĤåľºçļĦ": 6742,
      "æĸĩåĮĸä¼łæī¿": 6743,
      "ç²ĺ": 6744,
      "çĻĮçĹĩ": 6745,
      "ĠParis": 6746,
      "blem": 6747,
      "])": 6748,
      "èµł": 6749,
      "æ£µ": 6750,
      "éĶĻè¯¯çļĦ": 6751,
      "å¹²é¢Ħ": 6752,
      "éĢĿ": 6753,
      "çº·": 6754,
      "Ġcommon": 6755,
      "And": 6756,
      "PythonçļĦ": 6757,
      "ç²¾åĬĽ": 6758,
      "ä¾§éĩį": 6759,
      "æĸ°èĥ½æºĲ": 6760,
      "æķ°æį®ç»ĵæŀĦ": 6761,
      "Ġright": 6762,
      "Ġposs": 6763,
      "åĲ¯åıĳ": 6764,
      "èħ¹": 6765,
      "åįĥåħĭ": 6766,
      "æ¤ħ": 6767,
      "å®¶çļĦ": 6768,
      "Ġprocess": 6769,
      "æĥľ": 6770,
      "æĶ¿çŃĸåĴĮ": 6771,
      "Ġservice": 6772,
      "èĩªèº«åŃĺåľ¨çļĦ": 6773,
      "æİ¥ç§į": 6774,
      "dict": 6775,
      "ution": 6776,
      "å®ĥå°Ĩ": 6777,
      "èĩ³åħ³éĩįè¦ģçļĦ": 6778,
      "æĽ´æĺ¯": 6779,
      "è¡¨æĥħ": 6780,
      "è¢«è§Ĩä¸º": 6781,
      "å¾Īé«ĺåħ´": 6782,
      "æ»ļ": 6783,
      "åħ¨çĲĥæķ°åŃĹæ²»çĲĨ": 6784,
      "è°¢è°¢": 6785,
      "ä»¥æ»¡è¶³": 6786,
      "å²Ĺä½į": 6787,
      "åĪĢ": 6788,
      "è¡¡éĩı": 6789,
      "é«ĺéĢŁ": 6790,
      "æĵ¦": 6791,
      "ä¸įå½ĵ": 6792,
      "Ġcap": 6793,
      "æĦıå¤§åĪ©": 6794,
      "çī¹åĪ«çļĦ": 6795,
      "åģ¶æķ°": 6796,
      "æĭĸ": 6797,
      "ustom": 6798,
      "Ġvalues": 6799,
      "06": 6800,
      "æıĲé«ĺæķĪçİĩ": 6801,
      "èĥĮæĻ¯ä¸ĭ": 6802,
      "å¤©çĦ¶": 6803,
      "çĸĳéĹ®": 6804,
      "arg": 6805,
      "çĬ¬": 6806,
      "ç§©åºı": 6807,
      "è°ľé¢ĺ": 6808,
      "Ġread": 6809,
      "èĥ½å¤ŁæıĲä¾Ľ": 6810,
      "ä¸Ģå®¶": 6811,
      "Ġ17": 6812,
      "æ£Ģç´¢": 6813,
      "ene": 6814,
      "ç¼ĸè¯ĳ": 6815,
      "è®¸åı¯": 6816,
      "Ġformula": 6817,
      "åħĶ": 6818,
      "ç¦ıåĪ©": 6819,
      "æł¹æį®ä½łçļĦ": 6820,
      "ç»´ä¿®": 6821,
      "åīĬå¼±": 6822,
      "âĢĻ": 6823,
      "Ġshould": 6824,
      "éĺ²æĬ¤": 6825,
      "Ġpeople": 6826,
      "åĲĮåŃ¦": 6827,
      "çĽ®æłĩæĺ¯": 6828,
      "æĹ¥è®°": 6829,
      "åľºæīĢ": 6830,
      "ift": 6831,
      "åĭ¤": 6832,
      "å¯¼åħ¥": 6833,
      "åĪĿåŃ¦èĢħ": 6834,
      "æłĪ": 6835,
      "sorted": 6836,
      "itive": 6837,
      "ĠSQL": 6838,
      "åĬŁèĥ½çļĦ": 6839,
      "è®¤è¯ĨåĪ°": 6840,
      "å©´åĦ¿": 6841,
      "æĶ¯åĩº": 6842,
      "ç¨³å®ļæĢ§åĴĮ": 6843,
      "iginal": 6844,
      "åľ¨è®¾è®¡": 6845,
      "åĸ·": 6846,
      "æ¯ıä¸ªäººéĥ½": 6847,
      "æĬĳéĥģ": 6848,
      "Ġstr": 6849,
      "å®ĮæĪĲä»»åĬ¡": 6850,
      "çºłç¼ł": 6851,
      "çĸı": 6852,
      "å®¶æĹı": 6853,
      "èģĮåľº": 6854,
      "åī§æĥħ": 6855,
      "26": 6856,
      "å¥ĭ": 6857,
      "ta": 6858,
      "åħĪè¿ĽçļĦ": 6859,
      "éĢīæĭ©çļĦ": 6860,
      "ä¸įåĲĮç±»åŀĭçļĦ": 6861,
      "è¯ļå®ŀ": 6862,
      "ç§ĳæĬĢåıĳå±ķ": 6863,
      "$,": 6864,
      "æī¬": 6865,
      "ä½įæķ°": 6866,
      "æľĢä¼ĺ": 6867,
      "æ´»è·ĥ": 6868,
      "plot": 6869,
      "äººåĬĽ": 6870,
      "åıĳæĺİ": 6871,
      "ç«ŀäºīå¯¹æīĭ": 6872,
      "éĩįè¦ģä½ľçĶ¨": 6873,
      "çĥĺ": 6874,
      "è¿Ļç§įæĥħåĨµ": 6875,
      "åĨ·åį´": 6876,
      "Ġstate": 6877,
      "æ³°": 6878,
      "Ġwind": 6879,
      "RE": 6880,
      "èµ·çĤ¹": 6881,
      "otal": 6882,
      "ç¨³å®ļçļĦ": 6883,
      "æĳĦæ°ıåº¦": 6884,
      "è°¨æħİ": 6885,
      "åħ¨çĲĥåıĺæļĸ": 6886,
      "é¦¨": 6887,
      "åĨ³çŃĸè¿ĩç¨ĭ": 6888,
      "çħ§æĺİ": 6889,
      "LECT": 6890,
      "ä»¥åıĬåľ¨": 6891,
      "å°±èĥ½": 6892,
      "ä»»æĦı": 6893,
      "hing": 6894,
      "ä»¥ä¿ĿæĮģ": 6895,
      "æĪĳå¾Ī": 6896,
      "Ġstand": 6897,
      "çİ»": 6898,
      "æĭŁåĲĪ": 6899,
      "íķĺ": 6900,
      "çĲĨæĢ§": 6901,
      "éľĢåľ¨": 6902,
      "ä¹Łä¸º": 6903,
      "aining": 6904,
      "å¹¶æ²¡æľī": 6905,
      "æĬĵ": 6906,
      "ç»Ŀå¯¹": 6907,
      "arm": 6908,
      "åĻªéŁ³": 6909,
      "ä¸»è¦ģçĶ¨äºİ": 6910,
      "çļĦè®¡ç®Ĺ": 6911,
      "æĪ·å¤ĸæ´»åĬ¨": 6912,
      "Ġmod": 6913,
      "01": 6914,
      "åħīçļĦ": 6915,
      "ĠUn": 6916,
      "éī": 6917,
      "ä¾¿äºİ": 6918,
      "ä¸Ĭä¼ł": 6919,
      "å¼Ģå¤´": 6920,
      "è´¯": 6921,
      "æīĢæľīçļĦ": 6922,
      "æľĢå¤§åĢ¼": 6923,
      "ç»Ĩèħ»": 6924,
      "æĹ©ä¸Ĭ": 6925,
      "Ġ2024": 6926,
      "å¤įä¹ł": 6927,
      "Ġupd": 6928,
      "ç¨İæĶ¶": 6929,
      "of": 6930,
      "å°ıéķĩ": 6931,
      "äº§æĿĥ": 6932,
      "é£İéĢŁ": 6933,
      "åįģå¹´": 6934,
      "åį³æĹ¶": 6935,
      "åħ½": 6936,
      "æĿĥéĩį": 6937,
      "ä¸»ä½ĵ": 6938,
      "iss": 6939,
      "çļĦæ²ŁéĢļ": 6940,
      "aking": 6941,
      "ä¸įåıĺ": 6942,
      "çĶ¨æĪ·åľ¨": 6943,
      "HTTP": 6944,
      "åĲĮæĹ¶ä¹Łèĥ½": 6945,
      "çļĦå¹³è¡¡": 6946,
      "å½¢å®¹": 6947,
      "}\\]": 6948,
      "å¹´äºº": 6949,
      "ä¸»è¦ģä½ĵçİ°åľ¨ä»¥ä¸ĭåĩłä¸ªæĸ¹éĿ¢": 6950,
      "åŃĶ": 6951,
      "åĽ½å®¶åĴĮ": 6952,
      "æĪĺæĸĹ": 6953,
      "æĥĬåĸľ": 6954,
      "å¦ĤæŀľæĤ¨éľĢè¦ģ": 6955,
      "éľĢè¦ģéĢļè¿ĩ": 6956,
      "è¿Ļéĥ¨": 6957,
      "è½¬åıĺ": 6958,
      "ability": 6959,
      "Ġ36": 6960,
      "åľ¨ä¸ŃåĽ½": 6961,
      "æŁ¥éĺħ": 6962,
      "é»İ": 6963,
      "æįŁä¼¤": 6964,
      "My": 6965,
      "ç¨Ģ": 6966,
      "Ġext": 6967,
      "Ġob": 6968,
      "åŁİå¸ĤçļĦ": 6969,
      "è¾Ĳ": 6970,
      "åĪĽéĢłä¸Ģä¸ª": 6971,
      "åĨ³çŃĸçļĦ": 6972,
      "æĮĩæķ°": 6973,
      "è¡Įé©¶": 6974,
      "çĶ¨æĪ·åı¯ä»¥": 6975,
      "çĶ¨åĵģ": 6976,
      "æľīå¾Īå¤ļ": 6977,
      "target": 6978,
      "å§Ķ": 6979,
      "è°ĥåĳ³": 6980,
      "å¡«åĨĻ": 6981,
      "å¦ĤæŀľæĹ¶éĹ´": 6982,
      "æĸĩåĮĸåĴĮ": 6983,
      "ç»ĵæŀľçļĦ": 6984,
      "æīĩ": 6985,
      "å¸¦æľī": 6986,
      "ä¸Ģé¦ĸ": 6987,
      "å±ķè§Ī": 6988,
      "ĠEx": 6989,
      "\"ãĢĤ": 6990,
      "åĩ¡": 6991,
      "åŃĹæķ°": 6992,
      "ret": 6993,
      "åī¯ä½ľçĶ¨": 6994,
      "ëĭ¤": 6995,
      "çĽ®æłĩçļĦ": 6996,
      "Ġbl": 6997,
      "åģļåĩºæĽ´": 6998,
      "åħ¬ä¼Ĺå¯¹": 6999,
      "å¼¦": 7000,
      "`.": 7001,
      "äºĭä¸ļ": 7002,
      "éĻĦè¿ĳ": 7003,
      "åĮĸåĲĪçī©": 7004,
      "èĭ±éĽĦ": 7005,
      "ä¸Ģç»Ħ": 7006,
      "ROM": 7007,
      "the": 7008,
      "åı¯ä»¥å¸®åĬ©åĮ»çĶŁ": 7009,
      "å¯ĵ": 7010,
      "Ġsquare": 7011,
      "Ġdep": 7012,
      "éĹ»åĲį": 7013,
      "æĺ¯æľĢ": 7014,
      "åĽ´ç»ķ": 7015,
      "Ġcar": 7016,
      "è¿Ļæľ¬ä¹¦": 7017,
      "æķĻæİĪ": 7018,
      "è¢«å¹¿æ³Ľ": 7019,
      "èį¯çī©çłĶåıĳ": 7020,
      "äºĭä»¶çļĦ": 7021,
      "éī´": 7022,
      "ä¸Ģé¡¹": 7023,
      "me": 7024,
      "åĪĹè¡¨ä¸ŃçļĦ": 7025,
      "ĠâīĪ": 7026,
      "æĭĶ": 7027,
      "acter": 7028,
      "SV": 7029,
      "å¯ĨéĴ¥": 7030,
      "åĮ»çĶŁæĪĸ": 7031,
      "Ġstud": 7032,
      "Ġmor": 7033,
      "ä»¥ä¸ĭæĺ¯ä¸ĢäºĽåı¯èĥ½çļĦ": 7034,
      "åľ¨çİ°ä»£": 7035,
      "æĽ´æ·±": 7036,
      "æĦŁè§īçī¹åĪ«": 7037,
      "æİ¨åĩº": 7038,
      "åı¯èĥ½æĮĩçļĦæĺ¯": 7039,
      "æķĮ": 7040,
      "Ġsign": 7041,
      "æĪĳæĺ¯çĶ±": 7042,
      "resent": 7043,
      "Ġdoll": 7044,
      "é¡ºä¾¿": 7045,
      "ç¦ıç¥": 7046,
      "ä½Ĩä¹Ł": 7047,
      "çĥŃéĩı": 7048,
      "ä»İæĸĩç«łä¸Ń": 7049,
      "bash": 7050,
      "æķħäºĭçļĦ": 7051,
      "å¿ĹæĦ¿": 7052,
      "æĬ½å¥ĸ": 7053,
      "ç¦ıç¥ī": 7054,
      "è¾Ĳå°Ħ": 7055,
      "æĻ¯è§Ĥ": 7056,
      "è¡°": 7057,
      "è¿ĻäºĽåĽłç´ł": 7058,
      "å¦Ĥæŀľä½łçļĦ": 7059,
      "27": 7060,
      "åįĵ": 7061,
      "èĥ½å¤Łå¿«éĢŁ": 7062,
      "any": 7063,
      "èİ·åıĸæľĢæĸ°": 7064,
      "çĨĬ": 7065,
      "ç§ĳæĻ®": 7066,
      "åģļæ³ķ": 7067,
      "çļĦè¯Ńè¨Ģ": 7068,
      "æ·±è¿ľå½±åĵį": 7069,
      "Ġpounds": 7070,
      "_{": 7071,
      "åħ±åĲĮåĬªåĬĽ": 7072,
      "è¯·è®°ä½ı": 7073,
      "ä¼łè¯´": 7074,
      "çıįæĥľ": 7075,
      "èĢĲå¿ĥåĴĮ": 7076,
      "33": 7077,
      "æłĩæ³¨": 7078,
      "æĥħæĦŁè¡¨è¾¾": 7079,
      "çħ§é¡¾": 7080,
      "IM": 7081,
      "Un": 7082,
      "æ¸©é¦¨": 7083,
      "å®¢æĪ·æľįåĬ¡": 7084,
      "å®¡ç¾İ": 7085,
      "ç©ºè°ĥ": 7086,
      "å¦Ĥæŀľä½łéľĢè¦ģ": 7087,
      "elsius": 7088,
      "CPU": 7089,
      "çŃīäºİå¤ļå°ĳ": 7090,
      "åĴĮè¡Įä¸º": 7091,
      "ä¼ĺè´¨": 7092,
      "ype": 7093,
      "çº¿ç´¢": 7094,
      "æĸĳ": 7095,
      "åĩºçīĪ": 7096,
      "Ġimage": 7097,
      "æľįè£ħ": 7098,
      "Ġonly": 7099,
      "æ§": 7100,
      "éĿ¢åĲĳ": 7101,
      "æ°¸æģĴ": 7102,
      "ç»ĨèıĮ": 7103,
      "Ġau": 7104,
      "å»¶éķ¿": 7105,
      "æľĢé«ĺ": 7106,
      "å¤ĦçĲĨåĻ¨": 7107,
      "æŁł": 7108,
      "You": 7109,
      "å¼ķåĬĽ": 7110,
      "åİĨåı²çļĦ": 7111,
      "æīĭåĬ¨": 7112,
      "èĥ¸": 7113,
      "ä¹ĺå®¢": 7114,
      "ĠHe": 7115,
      "ana": 7116,
      "Ġlanguage": 7117,
      "Ġtechnology": 7118,
      "ĠæĪĳ": 7119,
      "æŃ£æĸ¹": 7120,
      "æ¸©æŁĶ": 7121,
      "æ¡ĥ": 7122,
      "è®¡ç®Ĺæľºè§Ĩè§ī": 7123,
      "ä¸īè§Ĵå½¢": 7124,
      "ãĤĬ": 7125,
      "Ġtrans": 7126,
      "æ¶Ĥ": 7127,
      "çİ©åħ·": 7128,
      "left": 7129,
      "ale": 7130,
      "åĨ¬åŃ£": 7131,
      "çļĦå½¢æĪĲ": 7132,
      "ced": 7133,
      "åĳĢ": 7134,
      "self": 7135,
      "è§Ĩè§īæķĪæŀľ": 7136,
      "æĳĨ": 7137,
      "Ġwebsite": 7138,
      "éĿŀæ³ķ": 7139,
      "åĪĽæĸ°ä¸İ": 7140,
      "Ġdirect": 7141,
      "çĹħæĥħ": 7142,
      "æĸĩä»¶çļĦ": 7143,
      "èĴĻ": 7144,
      "äººç¾¤": 7145,
      "ä¼ļæľī": 7146,
      "æĶ¾ç½®": 7147,
      "åĨħéĥ¨çļĦ": 7148,
      "åĽłæŀľ": 7149,
      "ech": 7150,
      "çªĹåı£": 7151,
      "æİ¨èįĲçļĦ": 7152,
      "Ġcolumn": 7153,
      "å°ĸ": 7154,
      "ä¸ĭéĽ¨": 7155,
      "æıĲä¾Ľä¸ĢäºĽ": 7156,
      "æĮºæľī": 7157,
      "å¦Ĥä½ķä½¿çĶ¨": 7158,
      "è¯¯å·®": 7159,
      "æ»¥çĶ¨": 7160,
      "çļĦä¸Ģç§į": 7161,
      "è¯·å¸®æĪĳ": 7162,
      "Ġaverage": 7163,
      "ape": 7164,
      "éĢļè¿ĩä¸Ĭè¿°æĸ¹æ³ķ": 7165,
      "è´¢å¯Į": 7166,
      "Ġbre": 7167,
      "äº¤ç»ĩ": 7168,
      "umps": 7169,
      "é«ĺæ¸©": 7170,
      "Ġask": 7171,
      "åı¤èĢģçļĦ": 7172,
      "Ġoften": 7173,
      "éŁµ": 7174,
      "ç§ĳåŃ¦çłĶç©¶": 7175,
      "ç»ıæµİçļĦ": 7176,
      "é»ĳæļĹ": 7177,
      "èĻ¹": 7178,
      "åĳ¨æľ«": 7179,
      "ä¸Ńæľī": 7180,
      "æ´Ĵ": 7181,
      "æħ¢æħ¢": 7182,
      "ĠAPI": 7183,
      "åĴĮçİ¯å¢ĥ": 7184,
      "èĪĴéĢĤçļĦ": 7185,
      "Ġfl": 7186,
      "par": 7187,
      "è§īå¯Ł": 7188,
      "è¡Įä¸ļçļĦ": 7189,
      "ä¿¡æģ¯æĪĸ": 7190,
      "Ġproblem": 7191,
      "èĴľ": 7192,
      "çŁŃè¯Ń": 7193,
      "avas": 7194,
      "ĠQ": 7195,
      "ä¸İåĪĽæĸ°": 7196,
      "https": 7197,
      "æĻ¶": 7198,
      "èµ·æºĲ": 7199,
      "æĽ²çº¿": 7200,
      "é£İæĻ¯": 7201,
      "ä½ľæģ¯": 7202,
      "ini": 7203,
      "ä¿ĿæĮģåģ¥åº·": 7204,
      "ream": 7205,
      "ä»¥èİ·å¾Ĺ": 7206,
      "æİĴåĲį": 7207,
      "çļĦè§Ĵåº¦": 7208,
      "æĶ¶åĪ°": 7209,
      "Ġcloud": 7210,
      "å¹¶ä½¿çĶ¨": 7211,
      "è¯´è¯Ŀ": 7212,
      "èĲ¥éĶĢçŃĸçķ¥": 7213,
      "åĩºåİ»": 7214,
      "åĵģç§į": 7215,
      "Ġno": 7216,
      "å½ĵåľ°çļĦ": 7217,
      "è¾¹çļĦ": 7218,
      "çİ¯ä¿ĿæĦıè¯Ĩ": 7219,
      "æľįåĬ¡äºİ": 7220,
      "avascript": 7221,
      "æĿ¥ç¡®å®ļ": 7222,
      "çĮİ": 7223,
      "å®Įæķ´çļĦ": 7224,
      "Ġnp": 7225,
      "æª¬": 7226,
      "æĢķ": 7227,
      "ä¸İèĩªçĦ¶": 7228,
      "åı£è¯Ń": 7229,
      "æ·±åĪ»çļĦ": 7230,
      ")ï¼Į": 7231,
      "å¦Ĥæŀľèĥ½": 7232,
      "Mind": 7233,
      "å¯Ħ": 7234,
      "ized": 7235,
      "æĲħ": 7236,
      "åĪĽéĢłåĬĽçļĦ": 7237,
      "åħĳæį¢": 7238,
      "ä¸İçİ°å®ŀ": 7239,
      "ä»¥ä¸ĭæĺ¯ä¸Ģç¯ĩ": 7240,
      "æ°§æ°Ķ": 7241,
      "å¾Ĵ": 7242,
      "æĹłçº¿": 7243,
      "æ¸ħæĻ°åľ°": 7244,
      "åĪĿæŃ¥": 7245,
      "æ·±åĮĸ": 7246,
      "çĪ¬": 7247,
      "æŃī": 7248,
      "é¢Ħè®¢": 7249,
      "ï¼Į\\(": 7250,
      "çĴĥ": 7251,
      "here": 7252,
      "ç¨İåĬ¡": 7253,
      "æŀĿ": 7254,
      "æ¦Ĥè¿°": 7255,
      "Ġincluding": 7256,
      "æŁłæª¬": 7257,
      "çļĦéĩįè¦ģç»ĦæĪĲéĥ¨åĪĨ": 7258,
      "èİĵ": 7259,
      "APP": 7260,
      "åı·çłģ": 7261,
      "èĩªå®ļä¹ī": 7262,
      "é²ģ": 7263,
      "è¯´æ³ķ": 7264,
      ")`": 7265,
      "300": 7266,
      "æİ¥åıĹä¸Ģä¸ª": 7267,
      "åİĭåĬĽåĴĮ": 7268,
      "æĽ´æ·±åħ¥": 7269,
      "åŃ¦çĶŁçļĦåŃ¦ä¹ł": 7270,
      "tiv": 7271,
      "ä½łåı¯ä»¥éĢļè¿ĩ": 7272,
      "æĭ¼åĨĻ": 7273,
      "åı¯èĥ½æĹłæ³ķ": 7274,
      "ä¿®æŃ£": 7275,
      "Ġhere": 7276,
      "é»ĺè®¤": 7277,
      "æĢ»åħ±": 7278,
      "æ·ĭ": 7279,
      "å¯Įæľī": 7280,
      "çĽ¸åĮ¹éħį": 7281,
      "æķ°æį®æĶ¶éĽĨ": 7282,
      "li": 7283,
      "Ġsystem": 7284,
      "Ġ22": 7285,
      "çģ¯åħī": 7286,
      "åı¯ä»¥å¢ŀå¼º": 7287,
      "æĸĲ": 7288,
      "æĲħæĭĮ": 7289,
      "å®ĪæĬ¤": 7290,
      "é£ŀæľº": 7291,
      "æ¤įçī©çļĦ": 7292,
      "åĲĮæĦı": 7293,
      "åĭĴ": 7294,
      "æľªç»ı": 7295,
      "Ġest": 7296,
      "ä»¥åºĶå¯¹": 7297,
      "Ġne": 7298,
      "ä¸ĸçķĮä¸Ń": 7299,
      "ĠRe": 7300,
      "ases": 7301,
      "å¯¹ç§°": 7302,
      "å®ŀçİ°çļĦ": 7303,
      "å·¥ä½ľåĴĮ": 7304,
      "çļĦæ¦Ĥçİĩ": 7305,
      "çŃīé¢ĨåŁŁçļĦ": 7306,
      "Ġæĺ¯ä¸Ģä¸ª": 7307,
      "çŃīçº§": 7308,
      "æ²³æµģ": 7309,
      "åĽ°æī°": 7310,
      "å¦Ĥæŀľä¸Ģä¸ª": 7311,
      "çĶµåİĭ": 7312,
      "å®ĮæĪĲåĲİ": 7313,
      "æĮģç»Ńä¼ĺåĮĸ": 7314,
      "çļĦçłĶç©¶": 7315,
      "Ġcondition": 7316,
      "Ġbrown": 7317,
      "åĩĨç¡®çİĩ": 7318,
      "Ġend": 7319,
      "äººæĢ§": 7320,
      "å¯¹æľªæĿ¥": 7321,
      "è¯¸": 7322,
      "æĩĤ": 7323,
      "è¯ģä¹¦": 7324,
      "Ġid": 7325,
      "æľĢä½³å®ŀè·µ": 7326,
      "Ġ+=": 7327,
      "è§Ĥå¿µ": 7328,
      "ä½ľä¸ºä¸Ģä¸ª": 7329,
      "æĪĳåľ¨": 7330,
      "ëĭĪ": 7331,
      "çİ¯å¢ĥä¸ĭ": 7332,
      "transl": 7333,
      "æł·å¼ı": 7334,
      "requ": 7335,
      "javascript": 7336,
      "}}{": 7337,
      "å¡«åħħ": 7338,
      "co": 7339,
      "æŁ±": 7340,
      "çķĮå®ļ": 7341,
      "çļĦä½ľçĶ¨": 7342,
      "çİ»çĴĥ": 7343,
      "azy": 7344,
      "æł¹æį®èĩªå·±çļĦ": 7345,
      "åĪĨè§£ä¸º": 7346,
      "åĲ¬ä¼Ĺ": 7347,
      "èģļä¼ļ": 7348,
      "æĭįæĳĦ": 7349,
      "éĽķ": 7350,
      "ä¸»å¯¼": 7351,
      "path": 7352,
      "áº": 7353,
      "ä»Ģä¹Īå¥½": 7354,
      "é½¿": 7355,
      "æĬĺæī£": 7356,
      "å¾Īå¤§": 7357,
      "æıĲåįĩäºĨ": 7358,
      "çŁ¿çī©è´¨": 7359,
      "çİ°éĩĳ": 7360,
      "DNA": 7361,
      "ä¹ĭå¤ĸ": 7362,
      "ä¸ªäººå¼ĢåıĳèĢħ": 7363,
      "ĠYou": 7364,
      "éĩİçĶŁ": 7365,
      "ç¡®ä¿Ŀä½ł": 7366,
      "æ¡¥æ¢ģ": 7367,
      "è¡Įä¸ºåĴĮ": 7368,
      "è§Ĩéĩİ": 7369,
      "ull": 7370,
      "çĶµæµģ": 7371,
      "Com": 7372,
      "å¸Ĥåľºè¶ĭåĬ¿": 7373,
      "ãĢģ`": 7374,
      "çłĶè®¨": 7375,
      "ç®ĢçŁŃ": 7376,
      "èħĶ": 7377,
      "--------": 7378,
      "æĥ³èģĬçļĦåĲĹ": 7379,
      "Ġoff": 7380,
      "åıįå°Ħ": 7381,
      "è¶£åĳ³": 7382,
      "br": 7383,
      "æĺ¯ä¸Ģä¸ªå¤įæĿĤ": 7384,
      "æľīå¤ļå°ĳä¸ª": 7385,
      "äººæķ°": 7386,
      "é¦Ļæ°Ķ": 7387,
      "Ġtimes": 7388,
      "æĸ¹çļĦ": 7389,
      "Ġlook": 7390,
      "ics": 7391,
      "çľĭä¼¼": 7392,
      "AC": 7393,
      "æ¶Īå¤±": 7394,
      "å®Įæķ´æĢ§": 7395,
      "æľĪçĲĥ": 7396,
      "roximate": 7397,
      "çĶµåŃĲåķĨåĬ¡": 7398,
      "æ¸¯": 7399,
      "å¦Ĥæŀľæ¯ıå¤©": 7400,
      "åĴĮè°Ĳåħ±": 7401,
      "Ġafter": 7402,
      "æł¹æį®éľĢè¦ģ": 7403,
      "æ¶µçĽĸäºĨ": 7404,
      "æĿ¥æıĲé«ĺ": 7405,
      "ural": 7406,
      "åģ¶å°Ķ": 7407,
      "è¿ĻäºĽæķ°æį®": 7408,
      "add": 7409,
      "Ġ&": 7410,
      "æĽ´é«ĺæķĪåľ°": 7411,
      "å²©": 7412,
      "ç¿°": 7413,
      "Ġí": 7414,
      "ploye": 7415,
      "Ġmorning": 7416,
      "äº¿": 7417,
      "æĸ°æĬĢæľ¯": 7418,
      "omething": 7419,
      "åıªè¦ģ": 7420,
      "åı¯ä»¥éĩĩåıĸ": 7421,
      "çĥŃéĹ¨": 7422,
      "Ġcontains": 7423,
      "pe": 7424,
      "æĺ¯åħ³éĶ®": 7425,
      "çļĦæĸĩæľ¬": 7426,
      "ĠCon": 7427,
      "roid": 7428,
      "åıĳéŁ³": 7429,
      "æķ°åŃĹçļĦ": 7430,
      "çĽ´æĴŃ": 7431,
      "çļĩ": 7432,
      "ç³ĸå°¿": 7433,
      "ä¸ŃåŃ¦ä¹ł": 7434,
      "ä»¥ä¸ĭæĺ¯æĪĳ": 7435,
      "åįİæ°ıåº¦": 7436,
      "èĤĿ": 7437,
      "åĴĮä½ł": 7438,
      "å¹¼": 7439,
      "ç³ĸå°¿çĹħ": 7440,
      "é£ĺ": 7441,
      "å°¤ä¸º": 7442,
      "çļĦå®ļä¹ī": 7443,
      "é£İéĻ©è¯Ħä¼°": 7444,
      "ä¸Ģçīĩ": 7445,
      "hai": 7446,
      "æ´ª": 7447,
      "Ġthree": 7448,
      "åĮħå®¹æĢ§": 7449,
      "place": 7450,
      "åĴĮæľĭåıĭä¸Ģèµ·": 7451,
      "æ·±åħ¥çĲĨè§£": 7452,
      "ç»ıæµİåıĳå±ķ": 7453,
      "ãĥ¼ãĥ": 7454,
      "åĮ»åŃ¦å½±åĥı": 7455,
      "å¼ĢåĲ¯": 7456,
      "å½ĵä¸ĭ": 7457,
      "æĦıä¹īåľ¨äºİ": 7458,
      "æĹĭå¾ĭ": 7459,
      "åį«æĺŁ": 7460,
      "è½¨éģĵ": 7461,
      "æĪĺæľ¯": 7462,
      "ç®ĢåİĨ": 7463,
      "æłĸ": 7464,
      "ç§įåŃĲ": 7465,
      "çļĦä¸į": 7466,
      "æĽ¼": 7467,
      "lob": 7468,
      "rame": 7469,
      "åł¡": 7470,
      "ç¯®çĲĥ": 7471,
      "æķĻèĤ²ä¸İ": 7472,
      "æĸ°åŀĭ": 7473,
      "å¢ŀè¿Ľ": 7474,
      "ä»£çłģä¸Ń": 7475,
      "err": 7476,
      "Ġpol": 7477,
      "èĤ¯": 7478,
      "çłĶè®¨ä¼ļ": 7479,
      "64": 7480,
      "ä¹Ŀ": 7481,
      "å¦Ĥä½ķéĢļè¿ĩ": 7482,
      "åħīçħ§": 7483,
      "æĻĤ": 7484,
      "äººç±»æĥħæĦŁ": 7485,
      "Ġupdates": 7486,
      "ats": 7487,
      "æ¸ħåįķ": 7488,
      "æİ¢ç´¢åĴĮ": 7489,
      "ä¹Łå°Ĩ": 7490,
      "Ġquestion": 7491,
      "è¿½æº¯": 7492,
      "æ³¢éĤ£": 7493,
      "è³": 7494,
      "ĠAn": 7495,
      "å±Ģéĥ¨": 7496,
      "Ġ\\[": 7497,
      "å·²ç»ıæĪĲä¸º": 7498,
      "ä¸ĭä¸Ģä¸ª": 7499,
      "åĲĪçĲĨå®īæİĴ": 7500,
      "ç¾¤ä½ĵçļĦ": 7501,
      "æī¹åĪ¤æĢ§æĢĿç»´": 7502,
      "Ñĥ": 7503,
      "å°±åĮ»": 7504,
      "èĬ±è´¹": 7505,
      "æľºåĻ¨åŃ¦ä¹łç®Ĺæ³ķ": 7506,
      "çļĦä¸įåĲĮ": 7507,
      "book": 7508,
      "Ġ{\"": 7509,
      "nergy": 7510,
      "ëĭĪëĭ¤": 7511,
      "Ġage": 7512,
      "CSS": 7513,
      "Ġminutes": 7514,
      "æł·çļĦ": 7515,
      "æľĢè¿ĳåľ¨å¿Ļ": 7516,
      "llo": 7517,
      "äºĮæ°§åĮĸç¢³": 7518,
      "èĬĤçĽ®": 7519,
      "æ°¢": 7520,
      "æĸ¹æ³ķåĴĮ": 7521,
      "éĺ¿éĩĮäºĳ": 7522,
      "æ³¢éĤ£å¥ĳ": 7523,
      "æķĻèĤ²çļĦ": 7524,
      "è®¾å¤ĩåĴĮ": 7525,
      "åıĤä¸İåº¦": 7526,
      "çº¦ç¿°": 7527,
      "å®Ŀå®Ŀ": 7528,
      "çĳŀ": 7529,
      "æļĹç¤º": 7530,
      "è®¾ç«ĭ": 7531,
      "è°ĥçłĶ": 7532,
      "éļıçĿĢæĹ¶éĹ´çļĦ": 7533,
      "è½¯ä»¶å¼Ģåıĳ": 7534,
      "vel": 7535,
      "åĴĮæī§è¡Į": 7536,
      "ìĿĦ": 7537,
      "éħĴç²¾": 7538,
      "å¸¸çĶ¨çļĦ": 7539,
      "ä»£åħ¥": 7540,
      "ĠSo": 7541,
      "æŃ¥éª¤åĴĮ": 7542,
      "SELECT": 7543,
      "äººç±»åľ¨": 7544,
      "çĽĨ": 7545,
      "Ġaccur": 7546,
      "ET": 7547,
      "hod": 7548,
      "Ġfox": 7549,
      "example": 7550,
      "ä»¥åħį": 7551,
      "åīįæīĢ": 7552,
      "ä»ĵåºĵ": 7553,
      "å¸½": 7554,
      "æıĲä¾ĽåķĨ": 7555,
      "åĲ¦åĪĻ": 7556,
      "çİ°åľ¨æĺ¯": 7557,
      "Ġloc": 7558,
      "ĠCelsius": 7559,
      "èĨ¨": 7560,
      "äººå·¥æĻºèĥ½å°Ĩ": 7561,
      "åĢºåĬ¡": 7562,
      "Generate": 7563,
      "åĽłä¸ºå®ĥä»¬": 7564,
      "å¤§æķ°æį®åĪĨæŀĲ": 7565,
      "å®ı": 7566,
      "igit": 7567,
      "PC": 7568,
      "æĻ¯çĤ¹": 7569,
      "é£Łè°±": 7570,
      "åĽłæŃ¤åľ¨": 7571,
      "åīįæīĢæľª": 7572,
      "å¸®åĬ©åĮ»çĶŁ": 7573,
      "Pythonä»£çłģ": 7574,
      "atch": 7575,
      "åĬŁèĥ½åĴĮ": 7576,
      "éĢļå¸¸æĺ¯": 7577,
      "ä»ĸä»¬å¯¹": 7578,
      "ming": 7579,
      "AIç³»ç»Ł": 7580,
      "éħįéĢģ": 7581,
      "åĪ¶åĵģ": 7582,
      "å½ĵä»Ĭ": 7583,
      "æĪĲç«ĭ": 7584,
      "Ġcorrect": 7585,
      "è¿ĩç¨ĭçļĦ": 7586,
      "çļĦæĻºèĥ½åĬ©æīĭ": 7587,
      "çĲ´": 7588,
      "äººå·¥æĻºèĥ½åı¯ä»¥": 7589,
      "å·¥ä½ľä¸İ": 7590,
      "æıĲä¾ĽæĽ´åĬł": 7591,
      "amb": 7592,
      "æıĲåĩºäºĨ": 7593,
      "æľīçĽĬ": 7594,
      "åħĪçĶŁ": 7595,
      "Ġç»ĵè®º": 7596,
      "åıĳçĶµ": 7597,
      "ìĿ´": 7598,
      "ÃŃ": 7599,
      "Ġsolve": 7600,
      "åİ¨æĪ¿": 7601,
      "æ¯ıæľĪ": 7602,
      "æŃ¤ç±»": 7603,
      "éĩĩåıĸæİªæĸ½": 7604,
      "Ġtask": 7605,
      "éªĹ": 7606,
      "åĲĪéĢĤ": 7607,
      "æĺ¯ä¸Ģæ¬¡": 7608,
      "ä¿ĿæĮģåĨ·éĿĻ": 7609,
      "åıĭå¥½": 7610,
      "çĤº": 7611,
      "Ġeven": 7612,
      "\"\"": 7613,
      "å£³": 7614,
      "Ġdays": 7615,
      "è¿ĲåĬ¨åĳĺ": 7616,
      "work": 7617,
      "çļĦè®¾è®¡": 7618,
      "åľ¨è¿Ļ": 7619,
      "è¿ģç§»": 7620,
      "æĸĲæ³¢éĤ£å¥ĳ": 7621,
      "æĶ¾å¼ĥ": 7622,
      "çº§åĪ«": 7623,
      "ä¸ĵéĹ¨çļĦ": 7624,
      "Ġflo": 7625,
      "åĿļæŀľ": 7626,
      "]ï¼Į": 7627,
      "åı¯éĢļè¿ĩ": 7628,
      "æ±Ĥè§£": 7629,
      "éĢļè®¯": 7630,
      "Ġnow": 7631,
      "æĿ¥èİ·åıĸ": 7632,
      "af": 7633,
      "æ¥ļ": 7634,
      "Ġä»İ": 7635,
      "æıĴä»¶": 7636,
      "ãĢĤ`": 7637,
      "çĶŁæĢģç³»ç»ŁçļĦ": 7638,
      "ertain": 7639,
      "ä½łå¦Ĥä½ķçľĭå¾ħèĩªæĪĳæĦıè¯Ĩ": 7640,
      "%ãĢĤ": 7641,
      "å¿łè¯ļåº¦": 7642,
      "å¹¶ä¸įæĺ¯": 7643,
      "å¦Īå¦Ī": 7644,
      "çļĦå¸Ĥåľº": 7645,
      "åħįåıĹ": 7646,
      "roximately": 7647,
      "Ġlazy": 7648,
      "ä¸ªæľĪ": 7649,
      "150": 7650,
      "å½¢å¼ıçļĦ": 7651,
      "å°½å¿«": 7652,
      "æĤ¨æıĲåĪ°çļĦ": 7653,
      "åĽ¾åĥıè¯ĨåĪ«": 7654,
      "å°ļæľª": 7655,
      "å±ĤçļĦ": 7656,
      "åĪĨæĶ¯": 7657,
      "Pro": 7658,
      "Ġsupp": 7659,
      "anghai": 7660,
      "èĨ¨èĥĢ": 7661,
      "ç¹ģæ®ĸ": 7662,
      "åĪĨæŃ§": 7663,
      "å¥ĩæķ°": 7664,
      "da": 7665,
      "Ġplay": 7666,
      "ç¤¾ä¼ļä¸Ń": 7667,
      "åįļçī©": 7668,
      "éĿ¢éĥ¨": 7669,
      "å°ĳå¹´": 7670,
      "ives": 7671,
      "åĮĹäº¬æĹ¶éĹ´": 7672,
      "åĽ°æĥĳ": 7673,
      "ä¸İæĬĢæľ¯": 7674,
      "çļĦæķĪçİĩ": 7675,
      "Ġ80": 7676,
      "åı¤åħ¸": 7677,
      "è¿Ļæ¬¾": 7678,
      "éĢļå¸¸ä¸İ": 7679,
      "æŃ£åĪĻè¡¨è¾¾å¼ı": 7680,
      "II": 7681,
      "Py": 7682,
      "æķ°æį®ä¿ĿæĬ¤": 7683,
      "ç¡®ä¿Ŀåħ¶": 7684,
      "ica": 7685,
      "æİ¨å¯¼": 7686,
      "å¤ĸåĩº": 7687,
      "AM": 7688,
      "ma": 7689,
      "Ġtype": 7690,
      "åľ¨æĹ¥å¸¸çĶŁæ´»ä¸Ń": 7691,
      "çļĦè¯Ŀ": 7692,
      "å¼ºå¤§": 7693,
      "çŃīå¤ļä¸ªé¢ĨåŁŁ": 7694,
      "åĴĮèĩªæĪĳ": 7695,
      "ä¿Ħ": 7696,
      "è®¢éĺħ": 7697,
      "åįļå®¢": 7698,
      "çļĦçĬ¶æĢģ": 7699,
      "å¼ĢåıĳçļĦæĻºèĥ½åĬ©æīĭ": 7700,
      "ä¹ĭæĹħ": 7701,
      "éĢļçĶ¨": 7702,
      "ä¸ªäººéļĲç§ģ": 7703,
      "Ġrun": 7704,
      "åĪĩæį¢": 7705,
      "æ±īåŃĹ": 7706,
      "å¹³åı°ä¸Ĭ": 7707,
      "lib": 7708,
      "è¿ĻäºĽæĬĢæľ¯": 7709,
      "çļĦæķĪæŀľ": 7710,
      "verter": 7711,
      "Ġser": 7712,
      "æľĢéĢĤåĲĪ": 7713,
      "Ġjumps": 7714,
      "çļĦè§Ĵèī²": 7715,
      "ä½Ĩå®ĥä»¬": 7716,
      "ç»ĵæŀĦçļĦ": 7717,
      "ches": 7718,
      "ä»£çĲĨ": 7719,
      "Ġwithout": 7720,
      "å¿½çķ¥": 7721,
      "åıĳåĩº": 7722,
      "ä¸Ńåįİ": 7723,
      "å¸ĮæľĽèĥ½": 7724,
      "æıĲä¾ĽæĽ´å¥½çļĦ": 7725,
      "åı¯ä»¥éĢīæĭ©": 7726,
      "å®ĥä¼ļ": 7727,
      "éģ¿åħįè¿ĩ": 7728,
      "æŃ»äº¡": 7729,
      "ìĹ": 7730,
      "å¦Ĥä½ķå°Ĩ": 7731,
      "èĢĥéĩı": 7732,
      "æ°¸è¿ľ": 7733,
      "è¿ĩåİ»çļĦ": 7734,
      "æĭĨ": 7735,
      "åľ¨ä¸į": 7736,
      "ĠCity": 7737,
      "ä¸ŃçļĦä¸Ģä¸ª": 7738,
      "be": 7739,
      "è´«": 7740,
      "çĩĥçĥ§": 7741,
      "ting": 7742,
      "éĿ¢ä¸´çĿĢ": 7743,
      "ife": 7744,
      "çļĦæīĢæľī": 7745,
      "åĴĮæķĻèĤ²": 7746,
      "æĹģ": 7747,
      "Ġelement": 7748,
      "ä¹Į": 7749,
      "çĺ¤": 7750,
      "çĽ¸åħ³æĢ§": 7751,
      "çļĦæ·±åº¦": 7752,
      "Ġav": 7753,
      "åħ·æľīéĩįè¦ģ": 7754,
      "Let": 7755,
      "åĨ»": 7756,
      "ĠæŃ¥éª¤": 7757,
      "ç»ĺåĪ¶": 7758,
      "Ġgame": 7759,
      "æµĵåº¦": 7760,
      "å±ĢéĻĲæĢ§": 7761,
      "çļĦéŁ³ä¹Ĳ": 7762,
      "æĽ´å¹¿æ³ĽçļĦ": 7763,
      "Ġsomething": 7764,
      "ç§¯æŀģå½±åĵį": 7765,
      "ä¸Ńå¤®": 7766,
      "éŁ©": 7767,
      "æĵħ": 7768,
      "åĴĮå°ı": 7769,
      "lex": 7770,
      "æĹ¶éĹ´æĹħè¡Į": 7771,
      "âĢ¦": 7772,
      "Ġ45": 7773,
      "ç»ıèĲ¥": 7774,
      "ĠÃ·": 7775,
      "ending": 7776,
      "æĹ¶ç©º": 7777,
      "hed": 7778,
      "æĪĳä»¬èĥ½å¤Ł": 7779,
      "æ¯ıæĹ¥": 7780,
      "æµħ": 7781,
      "åľ¨åħ¨çĲĥ": 7782,
      "äººå·¥æĻºèĥ½çļĦåıĳå±ķ": 7783,
      "olv": 7784,
      "ë¥": 7785,
      "å¦Ĥæŀľæĺ¯": 7786,
      "è¿Ļä»½": 7787,
      "éĩıåŃĲåĬĽåŃ¦": 7788,
      "çĲĨçĶ±": 7789,
      "åĴĮé«ĺ": 7790,
      "æĳĦåĥı": 7791,
      "è¿Ĳä½ľ": 7792,
      "æ°Ķè±¡": 7793,
      "æİĴéĻ¤": 7794,
      "åĽ½åĨħ": 7795,
      "Ġsecond": 7796,
      "å®ļä»·": 7797,
      "å¤ļè¾¹": 7798,
      "ç¨ĭåºıçļĦ": 7799,
      "å¸ĮæľĽè¿ĻäºĽå»ºè®®": 7800,
      "è¿ĻéľĢè¦ģ": 7801,
      "Ph": 7802,
      "çĽĹ": 7803,
      "è·¨åĽ½": 7804,
      "çļĦéĢŁåº¦": 7805,
      "Ġdoc": 7806,
      "ä»ĸåľ¨": 7807,
      "åħ³å¿ĥ": 7808,
      "æ¡¶": 7809,
      "Ġmay": 7810,
      "function": 7811,
      "æŃ£ä¹ī": 7812,
      "ody": 7813,
      "æľĢå¤§åĮĸ": 7814,
      "Ġgu": 7815,
      "åı¯èĥ½åŃĺåľ¨": 7816,
      "Ġexpression": 7817,
      "éģ®": 7818,
      "é¼»": 7819,
      "æĨ": 7820,
      "èŀº": 7821,
      "URL": 7822,
      "æķ°éĩıçļĦ": 7823,
      "çº¦ä¸º": 7824,
      "éĩİçĶŁåĬ¨çī©": 7825,
      "çĥģ": 7826,
      "äºļæ´²": 7827,
      "æĪĳä½ľä¸ºAI": 7828,
      "Ġorder": 7829,
      "æĭĴ": 7830,
      "ä½Ĩåı¯ä»¥": 7831,
      "éľľ": 7832,
      "lock": 7833,
      "åĩłç§į": 7834,
      "éĹªçĥģ": 7835,
      "æłĩè¯Ĩ": 7836,
      "çĽ¸åĬł": 7837,
      "èĭ±åĽ½": 7838,
      "ä¹ĲæĦı": 7839,
      "æµªæ¼«": 7840,
      "èĥ¡": 7841,
      "çŁ¥è¯Ĩäº§æĿĥ": 7842,
      "è§£éĩĬæĢ§": 7843,
      "å®ŀéªĮå®¤": 7844,
      "ä¿¡ä»°": 7845,
      "\\),": 7846,
      "translated": 7847,
      "ä¼Ĭ": 7848,
      "æĬ¹": 7849,
      "å¹¶å°Ĩåħ¶": 7850,
      "Ġhigh": 7851,
      "Ġparti": 7852,
      "å·´å·´": 7853,
      "é£İæł¼åĴĮ": 7854,
      "éĺ²å¾¡": 7855,
      "çļĦéĥ¨åĪĨ": 7856,
      "æĥħæĦŁåħ±é¸£": 7857,
      "åı¯èĥ½éĢļè¿ĩ": 7858,
      "èķ´åĲ«": 7859,
      "Ġprovided": 7860,
      "ç®¡çĲĨç³»ç»Ł": 7861,
      "æľĢè¿ĳæľī": 7862,
      "å¦ĩ": 7863,
      "èĬ¯": 7864,
      "æĹłäººæľº": 7865,
      "`,": 7866,
      "è¡ĮæĶ¿": 7867,
      "ä¸ĵæ³¨åĬĽ": 7868,
      "ä¼ĳéĹ²": 7869,
      "æĪĳçļĦåŃĺåľ¨æĺ¯ä¸ºäºĨ": 7870,
      "æĺ¯åĲ¦åŃĺåľ¨": 7871,
      "çİ°åľ¨åĮĹäº¬": 7872,
      "çĥŃçĪ±": 7873,
      "ĠéĢīæĭ©": 7874,
      "æĪĳæĺ¯çĶ±ä¸ŃåĽ½çļĦ": 7875,
      "ç½©": 7876,
      "\\%": 7877,
      "åģļå¥½": 7878,
      "çĽ´çº¿": 7879,
      "Ġapproximately": 7880,
      "ä¸ºäººç±»": 7881,
      "åĪ¶éĢłä¸ļ": 7882,
      "è§ĴèĲ½": 7883,
      "å¦Ĥä½¿çĶ¨": 7884,
      "å¿ħè¦ģæĹ¶": 7885,
      "çļĦå·¥åħ·": 7886,
      ")$": 7887,
      "çļĦè¿ĩç¨ĭä¸Ń": 7888,
      "åĴĮåģ¥åº·": 7889,
      "å¤©æ°Ķé¢ĦæĬ¥": 7890,
      "ision": 7891,
      "ç¦»å¼Ģ": 7892,
      "åľ¨éĩĳèŀį": 7893,
      "è¾ĥå°ı": 7894,
      "åı¯èĥ½ä¼ļå¯¹": 7895,
      "ĠCloud": 7896,
      "åīįæīĢæľªæľīçļĦ": 7897,
      "éĢļè¿ĩä½¿çĶ¨": 7898,
      "çŃīå¤ļç§į": 7899,
      "Ġevery": 7900,
      "æİ¨ç§»": 7901,
      "Linux": 7902,
      "æĪĸèĢħä½¿çĶ¨": 7903,
      "ä½łå¦Ĥä½ķçĲĨè§£": 7904,
      "æĺ¾èĳĹçļĦ": 7905,
      "è¿ĺæ¬¾": 7906,
      "cho": 7907,
      "æĿ¥å¤ĦçĲĨ": 7908,
      "çĶŁæ´»ä¹łæĥ¯": 7909,
      "å¤§éĩıæķ°æį®": 7910,
      "ç²¾ç¡®çļĦ": 7911,
      "GDP": 7912,
      "èµĦæľ¬": 7913,
      "çľŁå®ŀæĢ§": 7914,
      "ç§¯æŀģåıĤä¸İ": 7915,
      "æĮĩéĴĪ": 7916,
      "NT": 7917,
      "åºĶçĶ¨æĪĸ": 7918,
      "ãĢĭãĢģ": 7919,
      "Sure": 7920,
      "åİŁåĪĽæĢ§": 7921,
      "www": 7922,
      "èĢħåľ¨": 7923,
      "åį°åº¦": 7924,
      "æ³ī": 7925,
      "heit": 7926,
      "Shanghai": 7927,
      "æıĲä¾Ľåħ·ä½ĵçļĦ": 7928,
      "fl": 7929,
      "éĢĤå®ľ": 7930,
      "ä¸ºä¸»": 7931,
      "å°ıçİĭ": 7932,
      "åĨĻä¸Ģç¯ĩåħ³äºİäººå·¥æĻºèĥ½": 7933,
      "ç«ĭæĸ¹": 7934,
      "çĲĨè®ºä¸Ĭ": 7935,
      "åĴĮæ°´": 7936,
      "äºĶä¸ª": 7937,
      "ç»§æī¿": 7938,
      "éĢļçĶ¨çļĦ": 7939,
      "ä½ĨæĪĳ": 7940,
      "éĢļå¸¸çĶ±": 7941,
      "çĽ¸åħ³æ³ķå¾ĭæ³ķè§Ħ": 7942,
      "åľ°çĲĨä½įç½®": 7943,
      "acci": 7944,
      "éĴ¥åĮĻ": 7945,
      "Ġdeterm": 7946,
      "æ³ķåĽ½": 7947,
      "æ¸²": 7948,
      "çĵ¦": 7949,
      "è´¢äº§": 7950,
      "åľ¨éĢīæĭ©": 7951,
      "ahren": 7952,
      "An": 7953,
      "Ġsimple": 7954,
      "èĢĮä¸į": 7955,
      "éĺ²çģ«": 7956,
      "åį³å°Ĩ": 7957,
      "å¼¥": 7958,
      "ç©ºæł¼": 7959,
      "Ġmean": 7960,
      "éĹ®é¢ĺåĴĮ": 7961,
      "Ġdivided": 7962,
      "è¦ģä¸įè¦ģ": 7963,
      "åįļçī©é¦Ĩ": 7964,
      "æ¸²æŁĵ": 7965,
      "èħ¾": 7966,
      "å¹¶è¿Ľè¡Į": 7967,
      "å¼ĢåıĳçļĦæĻºèĥ½åĬ©æīĭminimind": 7968,
      "length": 7969,
      "çĶŁæĹ¥": 7970,
      "å¯¼èĩ´äºĨ": 7971,
      "éĺ¿éĩĮå·´å·´": 7972,
      "ahrenheit": 7973,
      "oy": 7974,
      "åľ¨æķĻèĤ²": 7975,
      "çļĦä¸ĢäºĽ": 7976,
      "Ġdescri": 7977,
      "ÙĦ": 7978,
      "ç«Ļåľ¨": 7979,
      "ought": 7980,
      "ä¹ŁéľĢè¦ģ": 7981,
      "Ġreferring": 7982,
      "ä¸ĵåĪ©": 7983,
      "åħ±åĲĮçļĦ": 7984,
      "onacci": 7985,
      "æĪĳæĺ¯çĶ±ä¸ŃåĽ½çļĦä¸ªäººå¼ĢåıĳèĢħ": 7986,
      "ä¼ļåĳĺ": 7987,
      "å½ĵä½ł": 7988,
      "åıĳèĤ²": 7989,
      "\\).": 7990,
      "åĪĽæĸ°æĢĿç»´": 7991,
      "çĶ¨æĪ·çķĮéĿ¢": 7992,
      "çļĦé¢ĨåŁŁ": 7993,
      "è¿ĻäºĽéĥ½": 7994,
      "icro": 7995,
      "ä¼ı": 7996,
      "(\\": 7997,
      "å¦ĤæŃ¤": 7998,
      "èĢĮéĹ»åĲį": 7999
    },
    "merges": [
      [
        "ï",
        "¼"
      ],
      [
        "ä",
        "¸"
      ],
      [
        "ç",
        "ļ"
      ],
      [
        "çļ",
        "Ħ"
      ],
      [
        "ï¼",
        "Į"
      ],
      [
        "ã",
        "Ģ"
      ],
      [
        "ãĢ",
        "Ĥ"
      ],
      [
        "ä",
        "º"
      ],
      [
        "ä",
        "»"
      ],
      [
        "å",
        "ı"
      ],
      [
        "æ",
        "ľ"
      ],
      [
        "ä",
        "½"
      ],
      [
        "è",
        "¿"
      ],
      [
        "å",
        "ħ"
      ],
      [
        "*",
        "*"
      ],
      [
        "æ",
        "Ī"
      ],
      [
        "å",
        "Ī"
      ],
      [
        "ç",
        "Ķ"
      ],
      [
        "å",
        "®"
      ],
      [
        "å",
        "Ĭ"
      ],
      [
        "å",
        "ľ"
      ],
      [
        "å",
        "Ĵ"
      ],
      [
        "å",
        "¤"
      ],
      [
        "åĴ",
        "Į"
      ],
      [
        "å",
        "Ĳ"
      ],
      [
        "ãĢ",
        "ģ"
      ],
      [
        "æ",
        "ĸ"
      ],
      [
        "è",
        "¯"
      ],
      [
        "æ",
        "ĺ"
      ],
      [
        "ï¼",
        "ļ"
      ],
      [
        "ç",
        "»"
      ],
      [
        "ĥ",
        "½"
      ],
      [
        "æ",
        "ķ"
      ],
      [
        "è",
        "®"
      ],
      [
        "é",
        "Ģ"
      ],
      [
        "è",
        "ĥ½"
      ],
      [
        "åľ",
        "¨"
      ],
      [
        "å",
        "Ń"
      ],
      [
        "åı",
        "¯"
      ],
      [
        "ä¸",
        "Ģ"
      ],
      [
        "ä",
        "¹"
      ],
      [
        "å",
        "º"
      ],
      [
        "ä»",
        "¥"
      ],
      [
        "æĺ",
        "¯"
      ],
      [
        "æ",
        "Ĺ"
      ],
      [
        "å",
        "Į"
      ],
      [
        "ä",
        "¼"
      ],
      [
        "è",
        "§"
      ],
      [
        "çĶ",
        "¨"
      ],
      [
        "Ġ",
        "**"
      ],
      [
        "æ",
        "Ģ"
      ],
      [
        "å",
        "¯"
      ],
      [
        "**",
        "ï¼ļ"
      ],
      [
        "ä¸",
        "ª"
      ],
      [
        "å",
        "°"
      ],
      [
        "è",
        "¡"
      ],
      [
        "é",
        "ĩ"
      ],
      [
        "æľ",
        "ī"
      ],
      [
        "Ġ",
        "Ġ"
      ],
      [
        "ä",
        "¿"
      ],
      [
        "å",
        "¸"
      ],
      [
        "æ",
        "Ŀ"
      ],
      [
        "å",
        "¼"
      ],
      [
        "¦",
        "Ĥ"
      ],
      [
        "å",
        "Ľ"
      ],
      [
        "ç",
        "İ"
      ],
      [
        "å",
        "ĩ"
      ],
      [
        "å",
        "Ĩ"
      ],
      [
        "äº",
        "º"
      ],
      [
        "Ġ",
        "t"
      ],
      [
        "é",
        "Ĺ"
      ],
      [
        "å",
        "¦Ĥ"
      ],
      [
        "ä¸",
        "Ń"
      ],
      [
        "ç",
        "Ĳ"
      ],
      [
        "ç",
        "Ń"
      ],
      [
        "è¿",
        "Ļ"
      ],
      [
        "æ",
        "ŀ"
      ],
      [
        "æ",
        "Ĭ"
      ],
      [
        "æķ",
        "°"
      ],
      [
        "ç",
        "ī"
      ],
      [
        "å",
        "¹"
      ],
      [
        "å",
        "·"
      ],
      [
        "i",
        "n"
      ],
      [
        "è",
        "Ģ"
      ],
      [
        "é",
        "¢"
      ],
      [
        "ç",
        "§"
      ],
      [
        "æ",
        "³"
      ],
      [
        "è",
        "¦"
      ],
      [
        "æ",
        "ı"
      ],
      [
        "æĹ",
        "¶"
      ],
      [
        "è¦",
        "ģ"
      ],
      [
        "ä¸",
        "º"
      ],
      [
        "ä¸",
        "į"
      ],
      [
        "ç",
        "Ľ"
      ],
      [
        "çĲ",
        "Ĩ"
      ],
      [
        "æ",
        "ł"
      ],
      [
        "äº",
        "Ĩ"
      ],
      [
        "æĪ",
        "ĳ"
      ],
      [
        "Ġ",
        "a"
      ],
      [
        "h",
        "e"
      ],
      [
        "å",
        "½"
      ],
      [
        "æ",
        "ī"
      ],
      [
        "å",
        "¾"
      ],
      [
        "ä",
        "¾"
      ],
      [
        "å¯",
        "¹"
      ],
      [
        "è¿",
        "ĩ"
      ],
      [
        "æ",
        "Ħ"
      ],
      [
        "æ",
        "İ"
      ],
      [
        "æĢ",
        "§"
      ],
      [
        "æĪ",
        "ĸ"
      ],
      [
        "åı¯",
        "ä»¥"
      ],
      [
        "äº",
        "İ"
      ],
      [
        "æı",
        "Ĳ"
      ],
      [
        "çĶ",
        "Ł"
      ],
      [
        "éĢ",
        "ļ"
      ],
      [
        "å",
        "į"
      ],
      [
        "è",
        "ĩ"
      ],
      [
        "ä¸",
        "İ"
      ],
      [
        "æ",
        "į"
      ],
      [
        "r",
        "e"
      ],
      [
        "æ",
        "Į"
      ],
      [
        "å",
        "ĵ"
      ],
      [
        "è¡",
        "Į"
      ],
      [
        "æ",
        "Ń"
      ],
      [
        "åŃ",
        "¦"
      ],
      [
        "åĮ",
        "ĸ"
      ],
      [
        "è",
        "´"
      ],
      [
        "çŃ",
        "ī"
      ],
      [
        "æ",
        "Ķ"
      ],
      [
        "æ",
        "ĥ"
      ],
      [
        "é",
        "Ŀ"
      ],
      [
        "æĸ",
        "¹"
      ],
      [
        "o",
        "n"
      ],
      [
        "ä½",
        "ľ"
      ],
      [
        "ä½",
        "ł"
      ],
      [
        "é",
        "ľ"
      ],
      [
        "e",
        "r"
      ],
      [
        "æ",
        "Ľ"
      ],
      [
        "ä¿",
        "Ŀ"
      ],
      [
        "â",
        "Ģ"
      ],
      [
        "æĪ",
        "Ĳ"
      ],
      [
        "a",
        "t"
      ],
      [
        "ç",
        "®"
      ],
      [
        "å",
        "¿"
      ],
      [
        "ä»",
        "¬"
      ],
      [
        "æ",
        "ĭ"
      ],
      [
        "æĿ",
        "¥"
      ],
      [
        "åĬ",
        "¨"
      ],
      [
        "åĪ",
        "Ĩ"
      ],
      [
        "ä¼",
        "ļ"
      ],
      [
        "éľ",
        "Ģ"
      ],
      [
        "ç",
        "¡"
      ],
      [
        "ä½",
        "ĵ"
      ],
      [
        "æĸ",
        "ĩ"
      ],
      [
        "ä¸",
        "ĭ"
      ],
      [
        "æ",
        "µ"
      ],
      [
        "åı¯",
        "èĥ½"
      ],
      [
        "æ",
        "Ļ"
      ],
      [
        "æĽ",
        "´"
      ],
      [
        "åĪ",
        "°"
      ],
      [
        "æ³",
        "ķ"
      ],
      [
        "æį",
        "®"
      ],
      [
        "ä½",
        "¿"
      ],
      [
        "å®",
        "ļ"
      ],
      [
        "åı",
        "ĳ"
      ],
      [
        "è§",
        "£"
      ],
      [
        "è",
        "¾"
      ],
      [
        "é",
        "Ļ"
      ],
      [
        "æ",
        "°"
      ],
      [
        "å",
        "±"
      ],
      [
        "è¿",
        "Ľ"
      ],
      [
        "å",
        "¥"
      ],
      [
        "åº",
        "Ķ"
      ],
      [
        "å·",
        "¥"
      ],
      [
        "åĲ",
        "Į"
      ],
      [
        "ç¡",
        "®"
      ],
      [
        "ç",
        "¨"
      ],
      [
        "äº",
        "Ľ"
      ],
      [
        "è",
        "µ"
      ],
      [
        "èĩ",
        "ª"
      ],
      [
        "o",
        "r"
      ],
      [
        "å",
        "ĳ"
      ],
      [
        "åħ",
        "³"
      ],
      [
        "çİ",
        "°"
      ],
      [
        "Ġt",
        "he"
      ],
      [
        "æĬ",
        "Ģ"
      ],
      [
        "å",
        "Ł"
      ],
      [
        "ï¼",
        "Ł"
      ],
      [
        "ä¸Ģ",
        "ä¸ª"
      ],
      [
        "åº",
        "¦"
      ],
      [
        "Ġ",
        "c"
      ],
      [
        "æ",
        "¯"
      ],
      [
        "å®",
        "ŀ"
      ],
      [
        "éĹ",
        "´"
      ],
      [
        "åĬ",
        "Ľ"
      ],
      [
        "åĲ",
        "Ī"
      ],
      [
        "æ",
        "´"
      ],
      [
        "å",
        "İ"
      ],
      [
        "åľ",
        "°"
      ],
      [
        "æŀ",
        "ľ"
      ],
      [
        "å¤",
        "ļ"
      ],
      [
        "Ġ",
        "s"
      ],
      [
        "e",
        "n"
      ],
      [
        "a",
        "n"
      ],
      [
        "ä½¿",
        "çĶ¨"
      ],
      [
        "ç",
        "³"
      ],
      [
        "e",
        "s"
      ],
      [
        "æľ",
        "¯"
      ],
      [
        "é",
        "«"
      ],
      [
        "æ",
        "±"
      ],
      [
        "ï¼",
        "ī"
      ],
      [
        "å",
        "¢"
      ],
      [
        "ç¨",
        "ĭ"
      ],
      [
        "éĩ",
        "ı"
      ],
      [
        "é«",
        "ĺ"
      ],
      [
        "éĿ",
        "¢"
      ],
      [
        "é¢",
        "ĺ"
      ],
      [
        "æĸ",
        "°"
      ],
      [
        "ï¼",
        "Ī"
      ],
      [
        "ç",
        "¤"
      ],
      [
        "é",
        "ģ"
      ],
      [
        "ç",
        "±"
      ],
      [
        "éĢļ",
        "è¿ĩ"
      ],
      [
        "ä¸",
        "Ĭ"
      ],
      [
        "éĹ",
        "®"
      ],
      [
        "i",
        "s"
      ],
      [
        "è",
        "½"
      ],
      [
        "ç",
        "º"
      ],
      [
        "çī",
        "©"
      ],
      [
        "è®",
        "¡"
      ],
      [
        "Ċ",
        "ĠĠ"
      ],
      [
        "åĩ",
        "º"
      ],
      [
        "æ",
        "²"
      ],
      [
        "å¤",
        "§"
      ],
      [
        "éľĢ",
        "è¦ģ"
      ],
      [
        "æĥ",
        "ħ"
      ],
      [
        "æķ°",
        "æį®"
      ],
      [
        "ç³",
        "»"
      ],
      [
        "Ł",
        "¥"
      ],
      [
        "éĩ",
        "į"
      ],
      [
        "å",
        "ģ"
      ],
      [
        "ç",
        "«"
      ],
      [
        "æľ",
        "Ģ"
      ],
      [
        "ä¾",
        "Ľ"
      ],
      [
        "ç§",
        "į"
      ],
      [
        "æĮ",
        "ģ"
      ],
      [
        "åĬ",
        "©"
      ],
      [
        "é",
        "ĺ"
      ],
      [
        "å¸",
        "¸"
      ],
      [
        "æĦ",
        "Ł"
      ],
      [
        "åĬ",
        "ł"
      ],
      [
        "æľ",
        "º"
      ],
      [
        "è®",
        "¾"
      ],
      [
        "æĦ",
        "ı"
      ],
      [
        "åħ",
        "¶"
      ],
      [
        "ä¸",
        "ļ"
      ],
      [
        "ç",
        "´"
      ],
      [
        "é",
        "£"
      ],
      [
        "å",
        "»"
      ],
      [
        "ç",
        "½"
      ],
      [
        "æ",
        "ģ"
      ],
      [
        "æ",
        "¸"
      ],
      [
        "æıĲ",
        "ä¾Ľ"
      ],
      [
        "ä¿",
        "¡"
      ],
      [
        "o",
        "u"
      ],
      [
        "å¼",
        "ı"
      ],
      [
        "è",
        "°"
      ],
      [
        "è",
        "ī"
      ],
      [
        "è",
        "¶"
      ],
      [
        "ä»",
        "ĸ"
      ],
      [
        "ç±",
        "»"
      ],
      [
        "i",
        "t"
      ],
      [
        "å",
        "Ģ"
      ],
      [
        "è¡",
        "¨"
      ],
      [
        "èĢ",
        "Į"
      ],
      [
        "å»",
        "º"
      ],
      [
        "å°",
        "Ĩ"
      ],
      [
        "æķ",
        "Ī"
      ],
      [
        "åħ",
        "¨"
      ],
      [
        "#",
        "#"
      ],
      [
        "å½",
        "±"
      ],
      [
        "Ġ",
        "="
      ],
      [
        "a",
        "l"
      ],
      [
        "çī",
        "¹"
      ],
      [
        "ç",
        "Ħ"
      ],
      [
        "æ´",
        "»"
      ],
      [
        "ä¹",
        "ł"
      ],
      [
        "æĬĢ",
        "æľ¯"
      ],
      [
        "åħ",
        "·"
      ],
      [
        "åĽ",
        "ł"
      ],
      [
        "ç®",
        "Ĺ"
      ],
      [
        "åŃ",
        "Ĳ"
      ],
      [
        "Ġ",
        "w"
      ],
      [
        "ç",
        "ľ"
      ],
      [
        "åĮ",
        "ħ"
      ],
      [
        "åĬ",
        "¡"
      ],
      [
        "Ġ",
        "f"
      ],
      [
        "å¥",
        "½"
      ],
      [
        "å¹",
        "¶"
      ],
      [
        "å¤",
        "©"
      ],
      [
        "åĪ",
        "¶"
      ],
      [
        "ç",
        "ł"
      ],
      [
        "æľ",
        "¬"
      ],
      [
        "ç",
        "Ĥ"
      ],
      [
        "Ġ",
        "p"
      ],
      [
        "l",
        "e"
      ],
      [
        "éĹ®",
        "é¢ĺ"
      ],
      [
        "èĢ",
        "ħ"
      ],
      [
        "æĪĳ",
        "ä»¬"
      ],
      [
        "âĢ",
        "ľ"
      ],
      [
        "æĻ",
        "º"
      ],
      [
        "âĢ",
        "Ŀ"
      ],
      [
        "æ",
        "Ĥ"
      ],
      [
        "ç",
        "ķ"
      ],
      [
        "é",
        "Ķ"
      ],
      [
        "å",
        "ī"
      ],
      [
        "é",
        "ļ"
      ],
      [
        "å±",
        "ķ"
      ],
      [
        "åĵ",
        "ģ"
      ],
      [
        "é",
        "ª"
      ],
      [
        "a",
        "r"
      ],
      [
        "åĨ",
        "ħ"
      ],
      [
        "çİ",
        "¯"
      ],
      [
        "çĦ",
        "¶"
      ],
      [
        "ç»",
        "Ł"
      ],
      [
        "Ġ",
        "\""
      ],
      [
        "ä»",
        "¶"
      ],
      [
        "æģ",
        "¯"
      ],
      [
        "Ġ",
        "in"
      ],
      [
        "æ",
        "¬"
      ],
      [
        "é",
        "¡"
      ],
      [
        "in",
        "g"
      ],
      [
        "Ġ",
        "o"
      ],
      [
        "ä»",
        "£"
      ],
      [
        "åĲ",
        "İ"
      ],
      [
        "åĵ",
        "į"
      ],
      [
        "åĪ",
        "Ľ"
      ],
      [
        "æ",
        "·"
      ],
      [
        "åħ",
        "¥"
      ],
      [
        "æĻº",
        "èĥ½"
      ],
      [
        "åı",
        "Ĭ"
      ],
      [
        "çĽ",
        "®"
      ],
      [
        "å¿",
        "ĥ"
      ],
      [
        "å®",
        "ĥ"
      ],
      [
        "è",
        "Ĥ"
      ],
      [
        "Ġ",
        "m"
      ],
      [
        "ç»",
        "ĵ"
      ],
      [
        "ç",
        "Ŀ"
      ],
      [
        "è¿Ľ",
        "è¡Į"
      ],
      [
        "Ġa",
        "n"
      ],
      [
        "å¦Ĥ",
        "æŀľ"
      ],
      [
        "ä¹",
        "Ł"
      ],
      [
        "Ġ",
        "1"
      ],
      [
        "æ±",
        "Ĥ"
      ],
      [
        "å®",
        "¶"
      ],
      [
        "ç»",
        "ı"
      ],
      [
        "Ġ",
        "b"
      ],
      [
        "ç",
        "ĸ"
      ],
      [
        "å",
        "ŀ"
      ],
      [
        "æĪ",
        "·"
      ],
      [
        "æĹ¶",
        "éĹ´"
      ],
      [
        "åı",
        "ĺ"
      ],
      [
        "`",
        "`"
      ],
      [
        "åĨ",
        "³"
      ],
      [
        "å°",
        "ı"
      ],
      [
        "å¹",
        "³"
      ],
      [
        "åħ",
        "¬"
      ],
      [
        "è",
        "·"
      ],
      [
        "ä¸",
        "»"
      ],
      [
        "å¸",
        "®"
      ],
      [
        "é",
        "ķ"
      ],
      [
        "çĤ",
        "¹"
      ],
      [
        "åŃ",
        "Ĺ"
      ],
      [
        "åŃ¦",
        "ä¹ł"
      ],
      [
        "æľ",
        "Ł"
      ],
      [
        "äº",
        "§"
      ],
      [
        "Ġ",
        "\\"
      ],
      [
        "å¼",
        "Ģ"
      ],
      [
        "æł",
        "ĩ"
      ],
      [
        "ä¾",
        "ĭ"
      ],
      [
        "ä½",
        "Ĩ"
      ],
      [
        "Ġ",
        "d"
      ],
      [
        "æ",
        "º"
      ],
      [
        "ä¹",
        "ĭ"
      ],
      [
        "å½±",
        "åĵį"
      ],
      [
        "æ",
        "¨"
      ],
      [
        "çĽ",
        "¸"
      ],
      [
        "è¯",
        "Ĩ"
      ],
      [
        "è¯",
        "Ń"
      ],
      [
        "ç",
        "©"
      ],
      [
        "Ġ",
        "-"
      ],
      [
        "éĢ",
        "Ĥ"
      ],
      [
        "t",
        "i"
      ],
      [
        "ä½",
        "ķ"
      ],
      [
        "ç¡®",
        "ä¿Ŀ"
      ],
      [
        "ç",
        "¬"
      ],
      [
        "æ¨",
        "¡"
      ],
      [
        "å¾",
        "Ĺ"
      ],
      [
        "è",
        "ģ"
      ],
      [
        "ç",
        "¼"
      ],
      [
        "çĶ",
        "µ"
      ],
      [
        "éĢ",
        "ī"
      ],
      [
        "ä¿¡",
        "æģ¯"
      ],
      [
        "è¿Ļ",
        "äºĽ"
      ],
      [
        "ç¤",
        "¾"
      ],
      [
        "e",
        "d"
      ],
      [
        "Ġt",
        "o"
      ],
      [
        "æĤ",
        "¨"
      ],
      [
        "ä¹",
        "Ī"
      ],
      [
        "ä»¥",
        "ä¸ĭ"
      ],
      [
        "ä»",
        "İ"
      ],
      [
        "è°",
        "ĥ"
      ],
      [
        "å®",
        "ī"
      ],
      [
        "å¸®",
        "åĬ©"
      ],
      [
        "åŃ",
        "ĺ"
      ],
      [
        "åŀ",
        "ĭ"
      ],
      [
        "æ",
        "¡"
      ],
      [
        "éķ",
        "¿"
      ],
      [
        "è",
        "Ĭ"
      ],
      [
        "äº",
        "¤"
      ],
      [
        "æİ",
        "¥"
      ],
      [
        "å¢",
        "ĥ"
      ],
      [
        "æº",
        "Ĳ"
      ],
      [
        "åĽ",
        "½"
      ],
      [
        "Ġo",
        "f"
      ],
      [
        "çİ",
        "ĩ"
      ],
      [
        "å¤",
        "Ħ"
      ],
      [
        "é",
        "Ľ"
      ],
      [
        "æī",
        "Ģ"
      ],
      [
        "æ¯",
        "ı"
      ],
      [
        "é",
        "ĥ"
      ],
      [
        "0",
        "0"
      ],
      [
        "æĺ",
        "İ"
      ],
      [
        "å°",
        "ĳ"
      ],
      [
        "ç",
        "Ł¥"
      ],
      [
        "è",
        "Ļ"
      ],
      [
        "èµ",
        "Ħ"
      ],
      [
        "æ°",
        "Ķ"
      ],
      [
        "çŃ",
        "ĸ"
      ],
      [
        "Ġ",
        "n"
      ],
      [
        "è´",
        "¨"
      ],
      [
        "æĭ",
        "¬"
      ],
      [
        "r",
        "o"
      ],
      [
        "çĿ",
        "Ģ"
      ],
      [
        "å",
        "Ļ"
      ],
      [
        "Ġan",
        "d"
      ],
      [
        "æ",
        "¶"
      ],
      [
        "ç³»",
        "ç»Ł"
      ],
      [
        "æŃ",
        "¥"
      ],
      [
        "äº",
        "ĭ"
      ],
      [
        "éĥ",
        "¨"
      ],
      [
        "æķ",
        "´"
      ],
      [
        "åĮħ",
        "æĭ¬"
      ],
      [
        "æŃ",
        "£"
      ],
      [
        "ç",
        "¾"
      ],
      [
        "å¯",
        "¼"
      ],
      [
        "å¤",
        "į"
      ],
      [
        "åºĶ",
        "çĶ¨"
      ],
      [
        "åĩ",
        "Ĩ"
      ],
      [
        "åľ",
        "º"
      ],
      [
        "i",
        "c"
      ],
      [
        "å",
        "Ŀ"
      ],
      [
        "è¯",
        "·"
      ],
      [
        "åĻ",
        "¨"
      ],
      [
        "a",
        "c"
      ],
      [
        "é",
        "ĥ½"
      ],
      [
        "ç§",
        "ĳ"
      ],
      [
        "å®",
        "¹"
      ],
      [
        "å½",
        "ĵ"
      ],
      [
        "åı",
        "ĸ"
      ],
      [
        "é",
        "¦"
      ],
      [
        "åī",
        "į"
      ],
      [
        "a",
        "s"
      ],
      [
        "ä¸į",
        "åĲĮ"
      ],
      [
        "éª",
        "Į"
      ],
      [
        "åĢ",
        "¼"
      ],
      [
        "æ·",
        "±"
      ],
      [
        "èī",
        "²"
      ],
      [
        "åŁ",
        "º"
      ],
      [
        "ä»",
        "»"
      ],
      [
        "äºº",
        "å·¥"
      ],
      [
        "æ°",
        "´"
      ],
      [
        "ä¸Ń",
        "çļĦ"
      ],
      [
        "æľ",
        "į"
      ],
      [
        "Ġ",
        "is"
      ],
      [
        "ç®",
        "¡"
      ],
      [
        "æ³",
        "¨"
      ],
      [
        "å¢",
        "ŀ"
      ],
      [
        "å¤",
        "Ł"
      ],
      [
        "æ¯",
        "Ķ"
      ],
      [
        "ç´",
        "ł"
      ],
      [
        "Ġ",
        "re"
      ],
      [
        "æµ",
        "ģ"
      ],
      [
        "åıĳ",
        "å±ķ"
      ],
      [
        "è§",
        "Ħ"
      ],
      [
        "æĹ",
        "ł"
      ],
      [
        "å¼",
        "º"
      ],
      [
        "ä¼",
        "ĺ"
      ],
      [
        "äººå·¥",
        "æĻºèĥ½"
      ],
      [
        "ç½",
        "ĳ"
      ],
      [
        "çĶ¨",
        "æĪ·"
      ],
      [
        "è®",
        "®"
      ],
      [
        "çİ¯",
        "å¢ĥ"
      ],
      [
        "èĢ",
        "ĥ"
      ],
      [
        "æĬ",
        "¤"
      ],
      [
        "æĥ",
        "³"
      ],
      [
        "åħ",
        "ĥ"
      ],
      [
        "è¿",
        "ĺ"
      ],
      [
        "åŁ",
        "Ł"
      ],
      [
        "æĭ",
        "©"
      ],
      [
        "u",
        "m"
      ],
      [
        "åĮ",
        "»"
      ],
      [
        "å¦Ĥ",
        "ä½ķ"
      ],
      [
        "éĢī",
        "æĭ©"
      ],
      [
        "åĪ",
        "©"
      ],
      [
        "é£",
        "İ"
      ],
      [
[...]
